e </w>
t </w>
s </w>
t h
d </w>
y </w>
i n
. </w>
a n
e r
o </w>
I </w>
, </w>
e n
o u
o r
o n
th e</w>
g </w>
t o</w>
a r
a </w>
in g</w>
i s</w>
a l
e d</w>
er </w>
t i
r e
f </w>
an d</w>
h a
o m
l </w>
s t
l i
in </w>
h </w>
on </w>
s e</w>
o f</w>
e s</w>
a t</w>
v e</w>
w a
or </w>
an </w>
m </w>
o w
k </w>
r i
l y</w>
i t</w>
en </w>
m y</w>
m e</w>
b e
y ou
' </w>
s t</w>
w i
a y</w>
T h
i c
o o
l e</w>
l e
a c
' '</w>
a t
th at</w>
l d</w>
you </w>
wa s</w>
w h
` `
`` </w>
l l</w>
) </w>
f or</w>
v er
d i
! </w>
o p
s i
th </w>
o t</w>
th e
ow </w>
s h
u t</w>
u r
( </w>
c h
er e</w>
k e</w>
a b
ha ve</w>
a p
s e
u n
i r
d ay</w>
' t</w>
n 't</w>
p e
en t</w>
s o</w>
ar e</w>
al </w>
r o
' s</w>
c a
n e
s h</w>
en t
? </w>
c e</w>
m a
n </w>
ou t</w>
ti on</w>
ou ld</w>
c om
th is</w>
p </w>
g h
b e</w>
a s
i t
u se</w>
wi th</w>
w or
r a
s u
m e
d o</w>
d e
n g
li sh</w>
n ot</w>
E ng
I t</w>
a g
e x
b ut</w>
or e</w>
- </w>
Eng lish</w>
s om
on e</w>
t er</w>
ar </w>
e l
d s</w>
th er</w>
ver y</w>
l o
J ap
Th e</w>
om </w>
s a
al ly</w>
c on
w e
t e
t o
ou n
th in
c h</w>
gh t</w>
an t</w>
r </w>
a s</w>
m o
l a
f e
c an</w>
li ke</w>
u s
ab out</w>
n ow</w>
: </w>
ha t</w>
wi ll</w>
c i
ca use</w>
- -</w>
f r
ti me</w>
\ /
w e</w>
' m</w>
m p
. .</w>
m i
e se</w>
u d
an y</w>
v er</w>
v i
e t</w>
oo d</w>
t er
w </w>
a d
fr om</w>
k ing</w>
a m</w>
al l</w>
an g
h e</w>
h i
t t
t r
op le</w>
be cause</w>
f or
t e</w>
e s
f ri
t a
t s</w>
y e
pe ople</w>
p o
. ..</w>
thin k</w>
y s</w>
m ore</w>
i </w>
fri en
b y</w>
g h</w>
ha d</w>
er s</w>
u l
p ro
st ud
o l
p re
f f
th ere</w>
a d</w>
w ant</w>
an ese</w>
the y</w>
p ar
ti on
ur e</w>
Jap anese</w>
f a
p l
t ed</w>
ir </w>
u st</w>
th ing</w>
i l
at e</w>
q u
h e
h er</w>
p er
som e</w>
B ut</w>
re c
o ther</w>
w ri
M y</w>
g ood</w>
g o</w>
som e
s pe
d e</w>
k now</w>
t y</w>
a tion</w>
on g</w>
the m</w>
w ould</w>
wh en</w>
s p
w hat</w>
f u
en ce</w>
g o
ha s</w>
ou gh</w>
wa y</w>
ar d</w>
d a
d u
g s</w>
i f</w>
d er
j o
b o
m any</w>
ic h</w>
ou r</w>
f in
k s</w>
c ould</w>
y ing</w>
Th is</w>
s ay</w>
oo k</w>
c l
w ere</w>
u p</w>
W h
Jap an</w>
i d</w>
T o
ar y</w>
wh ich</w>
t u
ir st</w>
p p
the ir</w>
S o</w>
ent s</w>
t ing</w>
e l</w>
k ed</w>
A n
w ent</w>
be en</w>
I n</w>
ti c
d o
0 </w>
wh o</w>
ou s</w>
oun d</w>
f ter</w>
you r</w>
g et</w>
n a
e y</w>
oo l</w>
i mp
s s</w>
c o
n ing</w>
e v
j ust</w>
le ar
al so</w>
sh e</w>
n o
m ent</w>
ag e</w>
ou r
di ff
di d</w>
le a
W e</w>
h o
s ch
m on
wor k</w>
m b
r y</w>
ab le</w>
m u
e ver</w>
t ri
f irst</w>
e st
c or
re ally</w>
s ent
ic e</w>
ic </w>
s o
in ter
b u
h is</w>
m in
to day</w>
sh ould</w>
ar s</w>
com p
en d</w>
frien ds</w>
be t
f e</w>
ow n</w>
e c
= =
ma ke</w>
on ly</w>
f i
d r
p r
b </w>
I f</w>
t al
th an</w>
m s</w>
ou ght</w>
sch ool</w>
d ed</w>
fu l</w>
s s
A </w>
g i
l ot</w>
d ing</w>
m es</w>
tion s</w>
ha pp
d er</w>
e p
g a
wa t
om e</w>
f ore</w>
to o</w>
s c
n i
al l
mu ch</w>
mo st</w>
ne w</w>
g e
st r
spe a
frien d</w>
se l
t ra
h ow</w>
To day</w>
w o</w>
com e</w>
it y</w>
C h
s ti
go ing</w>
c oun
st ar
h el
b i
sa id</w>
ac k</w>
t ure</w>
h ere</w>
H e</w>
ver y
Wh en</w>
s in
re ad
da ys</w>
tr y</w>
an ce</w>
g ra
ac e</w>
p a
u s</w>
wri te</w>
ow ever</w>
v ing</w>
us ed</w>
g r
An d</w>
we e
g u
k e
g re
e i
at ed</w>
se e</w>
cor rec
g e</w>
st a
] </w>
ti ve</w>
wa ys</w>
ou </w>
[ </w>
stud y</w>
c a</w>
fe el</w>
un der
g ot</w>
s si
ye ar</w>
in e</w>
an s</w>
com m
hi m</w>
m m
Th ere</w>
la st</w>
lea se</w>
; </w>
th ough</w>
ye ars</w>
ac h</w>
a fter</w>
en c
e p</w>
o f
n o</w>
Y ou</w>
e very
re e</w>
k es</w>
tt le</w>
l ang
' ve</w>
B e
l ong</w>
under st
k in
es s</w>
H owever</w>
W hat</w>
some thing</w>
m or
* *
0 0
t wo</w>
p ri
it e</w>
bet ter</w>
s on</w>
2 </w>
' ll</w>
e ly</w>
ta ke</w>
li ttle</w>
op e</w>
ti mes</w>
thin gs</w>
sent ence</w>
Th ey</w>
we ll</w>
8 </w>
p la
ma de</w>
v ed</w>
ne ed</w>
s ed</w>
cl as
a u
l oo
v es</w>
or t
li fe</w>
1 </w>
p h
h ome</w>
al ways</w>
re ad</w>
o c
diff er
= </w>
er day</w>
un i
u c
sel f</w>
S he</w>
ent ly</w>
mo vi
op </w>
be fore</w>
pro b
ag a
s k
al i
ch ang
st or
c u
lang u
hel p</w>
ev en</w>
b ack</w>
d y</w>
ca me</w>
t en
the se</w>
mb er</w>
w w
on s</w>
s er
lo ve</w>
sti ll</w>
b r
m er
h ope</w>
se e
su ch</w>
st e
l s</w>
3 </w>
Ch in
e ar
underst and</w>
c ol
b le</w>
h ard</w>
o ld</w>
an k</w>
or e
m an</w>
an s
ver si
re as
o ver</w>
h ou
fa mi
te ac
c t</w>
ex a
th ought</w>
A l
inter est
sin ce</w>
th en</w>
an y
ne x
en jo
con t
m ar
> </w>
or t</w>
nex t</w>
f un
at ur
ic ul
an i
correc t</w>
lear n</w>
b ook</w>
u e</w>
t en</w>
happ y</w>
sh i
sa me</w>
el l
p ic
mp le</w>
in to</w>
wh y</w>
wh ere</w>
diff icul
jo b</w>
y ed</w>
A fter</w>
\/ </w>
e very</w>
re a
w an
s ur
r ow</w>
do es</w>
aga in</w>
5 </w>
u su
wor ld</w>
D o</w>
wh i
n ed</w>
an d
ni ght</w>
wor ds</w>
D </w>
me an</w>
wor d</w>
s le
s es</w>
wat ch
== ==
c lo
wri ting</w>
it s</w>
c </w>
c all
r e</w>
m y
I n
s ure</w>
prob le
T hat</w>
di ary</w>
li st
f ound</w>
whi le</w>
t ur
g in
b us
e f
per i
spea k</w>
f l
e w</w>
wat ch</w>
li ve</w>
tion al</w>
l es</w>
hou se</w>
< </w>
na me</w>
f ac
om e
en er
difficul t</w>
op p
langu age</w>
ri ght</w>
o se</w>
m us
m at
enc es</w>
mor ning</w>
differ ent</w>
x </w>
y be</w>
de ci
ne ver</w>
versi ty</w>
fin d</w>
movi e</w>
fami ly</w>
S </w>
at ing</w>
per son</w>
stud ents</w>
si te</w>
h tt
ag o</w>
g n</w>
call ed</w>
hi gh</w>
b oo
be st</w>
read ing</w>
u </w>
c ar
e le
F or</w>
Be cause</w>
ar ound</w>
or row</w>
htt p</w>
K ore
pl ace</w>
wee k</w>
in gs</w>
k y
tt ing</w>
t ook</w>
t om
imp ro
ar i
n er</w>
mer ic
O n
imp ort
oun ds</w>
ye st
r ed</w>
ti es</w>
m ay</w>
wi th
e at</w>
kin d</w>
v el
yest erday</w>
stud ying</w>
du c
star ted</w>
A meric
2 00
clas s</w>
^ </w>
4 </w>
stor y</w>
c er
me ans</w>
ch il
n atur
A s</w>
g y</w>
o ff
my self</w>
re s</w>
a m
st er</w>
f ood</w>
us ing</w>
p u
H ow</w>
of ten</w>
ex c
c our
i s
mi ght</w>
e st</w>
P lease</w>
bo dy</w>
for ei
k i
h u
tal k</w>
en ing</w>
import ant</w>
al s</w>
ur ing</w>
s ounds</w>
m ust</w>
- 8</w>
g ir
an c
an other</w>
wan ted</w>
or s</w>
e ach</w>
mm er</w>
M a
te ll</w>
\/ \/
b ad</w>
coun try</w>
s y
in t
d ic
si de</w>
mon ey</w>
natur al</w>
f t</w>
read y</w>
tic </w>
le ss</w>
gi ve</w>
Chin ese</w>
st u
S e
ac ti
N ow</w>
p as
tu ally</w>
a f
A c
sh ed</w>
ow er</w>
v en</w>
be au
in g
s en
fin i
spe ci
bi g</w>
usu ally</w>
f el
ul ar</w>
fe w</w>
w on
w in
V </w>
k n
j ec
e a
fel t</w>
p ut</w>
some one</w>
s m
dr en</w>
ro om</w>
teac her</w>
a k
di s
v e
p lease</w>
9 </w>
exa mple</w>
b it</w>
comp any</w>
b l
bu y</w>
gre at</w>
z e</w>
co ld</w>
mus ic</w>
cour se</w>
p en
m ed</w>
with out</w>
po in
be come</w>
lear ning</w>
i l</w>
su b
Th ank</w>
uni versity</w>
ky o</w>
ex peri
n u
p s</w>
fa v
s ing</w>
pl ay</w>
boo ks</w>
th ree</w>
chang e</w>
ol l
To kyo</w>
b ought</w>
par t</w>
l l
th r
On e</w>
si on</w>
% </w>
tom orrow</w>
chil dren</w>
ag es</w>
it ed</w>
be ing</w>
b a
tt en</w>
ti ful</w>
t ly</w>
al ready</w>
s on
c ity</w>
to ld</w>
n ice</w>
t y
te st</w>
loo king</w>
L ang
ke ep</w>
t es</w>
interest ing</w>
Th en</w>
i de
dr in
c re
ne w
fe el
stud ent</w>
v el</w>
e ve</w>
d re
pl an
A t</w>
wor king</w>
be li
w om
me et</w>
c ur
C </w>
in ess</w>
su mmer</w>
re la
' d</w>
i es</w>
le ar</w>
w al
tri es</w>
i ght</w>
p op
col le
d d
ex pre
he ard</w>
impro ve</w>
some times</w>
we en</w>
er e
beau tiful</w>
at ely</w>
e t
sa w</w>
b or
bet ween</w>
deci ded</w>
6 </w>
w ard</w>
so on</w>
st s</w>
mo ther</w>
con d</w>
l ook</w>
ma kes</w>
T o</w>
d uring</w>
c ul
u gh
T V</w>
t or</w>
star t</w>
as ked</w>
g g
fe c
ter s</w>
a i
of f</w>
m a</w>
ch ar
m an
our s</w>
** **
th ose</w>
ap p
ww w
en ed</w>
b ro
_ _
^ ^</w>
coun tries</w>
enjo y</w>
g n
mon th</w>
qu es
. com
d own</w>
en g
& </w>
www .
k en</w>
le t</w>
d in
h ot</w>
ow s</w>
~ ~
ar e
p e</w>
su l
er ed</w>
fav or
0 0</w>
tr ans
so ci
sent ences</w>
ow ing</w>
we a
z ed</w>
proble m</w>
ti l</w>
en ough</w>
R e
b lo
ra in
fu ture</w>
ri ed</w>
p i
Lang -8</w>
ic al</w>
ne t</w>
w ar
v o
R </w>
c es
reas on</w>
d ly</w>
d ra
An y
s ent</w>
mi l
me an
th ers</w>
par ents</w>
m ous</w>
favor ite</w>
thr ough</w>
t re
E </w>
I s</w>
H a
h ours</w>
ti red</w>
un </w>
' re</w>
ar t</w>
ent ry</w>
al most</w>
for t
F r
O n</w>
me mber</w>
every one</w>
forei gn</w>
1 0</w>
fun </w>
ou t
s ol
o b
h ar
o k
il l
or i
ch e
ho li
c k</w>
2 0
U n
K </w>
at er</w>
un til</w>
se ar
de vel
pe ci
ga me</w>
bo th</w>
fa mous</w>
g er</w>
p ho
k ers</w>
ma tion</w>
i li
e as
th s</w>
a st</w>
ac h
ad v
wri tten</w>
cont in
ch ec
ic i
r u
ste ad</w>
tal king</w>
ans w
se cond</w>
re f
n y</w>
W e
ti t
b ir
or der</w>
for m
do ing</w>
sm all</w>
beli eve</w>
Ma ybe</w>
T </w>
ge tting</w>
ro ad</w>
par ty</w>
c oo
c are</w>
ti v
he al
watch ed</w>
in i
un ch</w>
c ep
u m</w>
ta in</w>
o d</w>
re sta
7 </w>
po ssi
pa st</w>
resta ur
na tive</w>
S t
f oll
re sul
es peci
sur pri
sle ep</w>
in ce</w>
at ure</w>
int ro
j our
spea king</w>
Any way</w>
in ed</w>
k et</w>
b rea
l ate</w>
Americ an</w>
especi ally</w>
tri ed</w>
ph one</w>
any thing</w>
ou s
il ls</w>
Y est
to ge
com ing</w>
see ms</w>
w r
te ch
c ar</w>
Yest erday</w>
si tu
o ver
A u
se as
t own</w>
B y</w>
ss ed</w>
toge ther</w>
m ents</w>
comm un
watch ing</w>
m ent
b and</w>
b li
le ft</w>
an ks</w>
ne e
ere fore</w>
wa ter</w>
t ter</w>
N o
b all</w>
wea ther</w>
N ew</w>
tu res</w>
or ry</w>
eas y</w>
ch i
gra du
th er
min d</w>
b as
ssi on</w>
k er</w>
pro gra
thin king</w>
ell o</w>
da ugh
bus y</w>
pr acti
po li
at es</w>
v en
mi sta
r ing</w>
d ri
Kore an</w>
S h
H ello</w>
in c
Al though</w>
S ome</w>
f al
==== ====
ang e</w>
re ali
cl u
as k</w>
g ener
con si
sh op</w>
w ro
le ss
s ound</w>
de si
.com \/
a tions</w>
s it</w>
in for
fal se</w>
wro te</w>
min u
off ice</w>
st re
en ti
de li
S ome
c ha
wee k
d ent</w>
ex t</w>
li ving</w>
a ke</w>
tr ying</w>
l and</w>
di tion</w>
e mp
l ine</w>
b ed</w>
a way</w>
sh ow</w>
re qu
for ward</w>
interest ed</w>
sy ste
lo gy</w>
teac h
s al
jour n
ab ly</w>
v ac
vi ew</w>
c ent
\/\/ www.
tri p</w>
g ar
me t</w>
sk ills</w>
H i</w>
st ed</w>
in stead</w>
ea si
f ree</w>
F irst</w>
it ing</w>
practi ce</w>
e -
ex pe
ces s
R ec
ha ving</w>
M o
devel op
stu di
gir l</w>
mon ths</w>
h and</w>
ga ve</w>
ac t</w>
re p
o thers</w>
l on
ma ybe</w>
Chin a</w>
ne ar</w>
S ince</w>
l unch</w>
L i
pop ular</w>
w an</w>
O r</w>
ra in</w>
ca tion</w>
in v
st y
go ver
E x
tra in</w>
mean ing</w>
c ted</w>
c all</w>
new s</w>
te mp
uc lear</w>
wr ong</w>
con ver
bus iness</w>
pic ture</w>
won der
sin g
rec ently</w>
ear ly</w>
d es</w>
fini shed</w>
experi ence</w>
list ening</w>
Ac tually</w>
comp le
ex am</w>
l ow</w>
la tion</w>
S u
ca se</w>
s ong</w>
Al so</w>
e du
Wh y</w>
s un
daugh ter</w>
du ce</w>
gover n
Rec ently</w>
y et</w>
O f</w>
loo ked</w>
* </w>
n g</w>
wi fe</w>
wh e
si ve</w>
pu bli
shi p</w>
par t
T O
p ower</w>
restaur ant</w>
e ty</w>
in ing</w>
fac t</w>
commun ic
h ome
possi ble</w>
se ver
fa ther</w>
jec t</w>
po si
din ner</w>
proble ms</w>
~ </w>
st ay</w>
ou p</w>
movi es</w>
ide a</w>
comp u
situ ation</w>
cl ud
n a</w>
Th erefore</w>
com es</w>
y o
c ap
it al</w>
opp ing</w>
qu ite</w>
c e
at t
or y</w>
su pp
conver sa
be g
on t</w>
c ess</w>
f oo
Th ese</w>
infor mation</w>
st om
char ac
you ng</w>
ch o
sa ying</w>
pr op
W i
ma s</w>
we b
ap er</w>
v ari
ele c
f ace</w>
an t
se t</w>
ma king</w>
m en</w>
sh ort</w>
E ven</w>
sc ri
c r
i ma
on ce</w>
Kore a</w>
u p
chang ed</w>
ci ous</w>
fin e</w>
every thing</w>
ser v
every day</w>
be came</w>
wor ks</w>
na tional</w>
tr ue</w>
minu tes</w>
vi si
drin k</w>
ap </w>
ic s</w>
pro duc
c le</w>
al ity</w>
in s</w>
pl ac
feel ing</w>
me mb
hi gh
ne ss</w>
a w
ar ri
ab ili
h al
an g</w>
re member</w>
list en</w>
tal ked</w>
syste m</w>
c at
e y
bu il
vi sit</w>
In ter
ex pla
N a
wi sh</w>
enjo yed</w>
con om
ap pe
u k
se en</w>
1 9
whe ther</w>
op ini
ta king</w>
fa st</w>
govern ment</w>
lear ned</w>
con f
fl u
h a</w>
cul ture</w>
poin t</w>
he ar</w>
surpri sed</w>
f f</w>
lo c
f ar</w>
seas on</w>
pla ying</w>
n or
on es</w>
tur n</w>
me mor
h us
dre am</w>
holi day</w>
c ou
fe ct</w>
sear ch</w>
o es</w>
N </w>
L </w>
vi de
sh i</w>
in clud
c ri
th qu
st e</w>
nu mber</w>
colle ge</w>
con cer
c le
L ast</w>
er ing</w>
3 0</w>
ac tually</w>
n uclear</w>
fe e</w>
no thing</w>
H i
t ou
sen se</w>
ir d</w>
sle ep
d ge</w>
u se
su c
ic k
ow ed</w>
ab road</w>
comm on</w>
tech no
be gin
happ ened</w>
sa d</w>
str uc
e ting</w>
o ve</w>
sh opping</w>
an ds</w>
week end</w>
ch ance</w>
you tu
hel p
wom en</w>
st ore</w>
e ar</w>
M </w>
hus band</w>
li ght</w>
answ er</w>
st ri
e w
sever al</w>
ex pen
vac ation</w>
at ten
P e
rec ei
e conom
pre sent</w>
pla yed</w>
c li
str ange</w>
a v
m en
journ al</w>
l ed</w>
pr on
th day</w>
ques tion</w>
t op
et c</w>
gu ess</w>
li ves</w>
P </w>
sty le</w>
v al</w>
c tion</w>
langu ages</w>
G ood</w>
o le</w>
sp end</w>
chi ld</w>
s orry</w>
s ha
ha ir</w>
t ors</w>
C om
te ach</w>
hal f</w>
speci al</w>
dd en
l ar
re al</w>
compu ter</w>
M ar
f re
publi c</w>
chec k</w>
prob ably</w>
ri ce</w>
un ately</w>
ear thqu
wom an</w>
li es</w>
po or</w>
resul t</w>
Th anks</w>
n er
ar tic
We ll</w>
d =</w>
eng lish</w>
d en</w>
h un
l ing</w>
ri es</w>
fr ont</w>
ma il</w>
le as
are a</w>
u ght</w>
O </w>
N o</w>
er i
ac k
th es</w>
t on
A ll</w>
c ra
M any</w>
won der</w>
gh ts</w>
l ater</w>
st op</w>
v ir
W or
abili ty</w>
f ic
lea ve</w>
e ating</w>
Ch ri
re comm
200 9</w>
l uc
vi ous</w>
af ter
ma in</w>
di sc
F in
en s</w>
te am</w>
youtu be
l ated</w>
web site</w>
clo thes</w>
conversa tion</w>
an ts</w>
for m</w>
d one</w>
son gs</w>
str ong</w>
or ts</w>
inter net</w>
b s</w>
b ab
youtube .com\/
ep t</w>
f il
pic tures</w>
k a</w>
ul ly</w>
sk i
in es</w>
fun ny</w>
pl an</w>
lea st</w>
v =
j i</w>
studi ed</w>
s n
s po
mista kes</w>
lo st</w>
bir thday</w>
Ha ve</w>
ser i
youtube.com\/ watch</w>
ir e</w>
win ter</w>
sp on
wh ole</w>
ev ed</w>
Y </w>
ch oo
fu ll</w>
r un
er ci
lo ts</w>
o ke</w>
sa ys</w>
deli cious</w>
T ai
me di
mm ar</w>
sp ring</w>
li c
ra se</w>
qu i
ma j
ti ci
kn own</w>
m al</w>
ener gy</w>
fe sti
he ld</w>
M i
a ma
z y</w>
O h</w>
per son
e ment</w>
\/\/www. youtube.com\/watch</w>
g en
1 0
cor ding</w>
Americ a</w>
tra vel</w>
progra m</w>
no on</w>
differ ence</w>
S un
ph rase</w>
e d
z ing</w>
di rec
me eting</w>
easi ly</w>
2 0</w>
usu al</w>
ne cess
ar ed</w>
heal th</w>
me ss
opini on</w>
or g
m om
p ay</w>
c ent</w>
s ci
h our</w>
c ool</w>
cu stom
f our</w>
al one</w>
F ri
su p
s we
ic k</w>
U </w>
p ur
**** ****
l y
i ly</w>
soci ety</w>
tt y</w>
ti s
B </w>
i m
pla y
fin ally</w>
tr ou
co f
TO E
st ing</w>
artic le</w>
gra mmar</w>
ra ther</w>
ous ly</w>
par ed</w>
oo d
k y</w>
er ry</w>
di tional</w>
imp re
a ir
t able</w>
ten se</w>
mi </w>
earthqu ake</w>
g la
wal k</w>
M e
E very
t op</w>
p t</w>
wee ks</w>
sel ves</w>
me dic
Some times</w>
a ir</w>
D ay</w>
du e</w>
un der</w>
U ni
contin u
cof fee</w>
al e</w>
bu s</w>
te ly</w>
1 1</w>
ar ing</w>
kn ow
pre ci
gr oup</w>
ta tion</w>
re spon
ur </w>
he art</w>
out side</w>
clu b</w>
s wi
y s
C on
ab ove</w>
clas s
opp ed</w>
do g</w>
M on
f er</w>
vari ous</w>
tur ned</w>
memb ers</w>
sh ing</w>
s l
hu man</w>
gla d</w>
at u
kin ds</w>
expen sive</w>
techno logy</w>
ho sp
plac es</w>
ques tions</w>
v al
cu te</w>
ori gin
expla in</w>
ad dition</w>
h er
emp lo
mo ve</w>
enc y</w>
wor ked</w>
cur r
t w
y cle</w>
vide o</w>
P ar
foll owing</w>
le vel</w>
reas ons</w>
ga mes</w>
h owever</w>
re li
pa in
y en</w>
p le</w>
pas sed</w>
pre sent
C an</w>
wa it</w>
ge st</w>
L et</w>
elec tri
intro duce</w>
he ad</w>
sh es</w>
com fort
v ol
exc ited</w>
de scri
si mil
Chri st
choo se</w>
necess ary</w>
m ing</w>
less on</w>
st ation</w>
gr ap
U S</w>
__ __
en ding</w>
ha ha</w>
f ic</w>
pre vious</w>
comp ani
intro duc
festi val</w>
fini sh</w>
contin ue</w>
b ri
h on
si ster</w>
c al
teach ers</w>
pro fe
tr ac
H is</w>
r un</w>
der ly</w>
C an
tic ed</w>
P ri
tic s</w>
tic al</w>
know le
co st</w>
gh t
B o
loo ks</w>
st ance</w>
edu cation</w>
y a</w>
ag ed</w>
de pen
b ur
clas ses</w>
T om
re st</w>
fi ed</w>
O R</w>
ty pe</w>
j u
r as
reali zed</w>
Pe ople</w>
S ing
sol u
str ali
su ff
bab y</w>
ei ther</w>
re search</w>
pre tty</w>
expre ss</w>
Au strali
po se</w>
ta kes</w>
ra di
s now</w>
ey es</w>
c lear</w>
anc es</w>
/ /
c ut</w>
si an</w>
fi sh</w>
pr om
pro vi
mar ket</w>
ac ci
der ed</w>
ra id</w>
see ing</w>
Inter net</w>
re ac
ter ri
el derly</w>
me ant</w>
sp ent</w>
Christ mas</w>
Sun day</w>
bor n</w>
er y</w>
le c
use ful</w>
wor ried</w>
spea kers</w>
is su
af raid</w>
arri ved</w>
clo se</w>
we ar</w>
mom ent</w>
mo ved</w>
begin ning</w>
mat ter</w>
do c
tr u
con ven
oun t</w>
car e
vir on
comfort able</w>
k new</w>
Fin ally</w>
wonder ful</w>
nee ded</w>
ef fec
H ere</w>
see med</w>
fi ve</w>
al though</w>
gn ers</w>
op s</w>
ar ti
simil ar</w>
i se</w>
ap preci
after noon</w>
si mple</w>
g l
desi gn</w>
ag ree</w>
ev ening</w>
temp er
an ding</w>
Mo st</w>
h ur
t wi
ev ent</w>
us es</w>
K yo
pr ac
to t
J ust</w>
B ri
any one</w>
pro cess</w>
knowle dge</w>
cl es</w>
ou th</w>
exa min
00 0</w>
qu ick
D i
vi ew
drin king</w>
N ot</w>
li m
Sing ap
par k</w>
gr and
opp ort
en ch</w>
di vi
s \/
ir ed</w>
A r
p aper</w>
Y ear</w>
pri ce</w>
en viron
compani es</w>
atur day</w>
fort unately</w>
bo y</w>
ent ries</w>
po sed</w>
Uni versity</w>
lo l</w>
ic es</w>
T e
d -
li ved</w>
ver b</w>
A re</w>
n ers</w>
tra ditional</w>
st ra
Kyo to</w>
O K</w>
g ni
rain y</w>
hi le</w>
quick ly</w>
y e</w>
heal th
ex erci
ac hi
I N
beg an</w>
g ed</w>
vo ice</w>
re lated</w>
ner v
re gi
ac cep
pho to
hi story</w>
expe cted</w>
da ily</w>
U S
sc ore</w>
en ded</w>
pa in</w>
su gg
x i
b ic
A b
G er
te a</w>
ho b
P o
wa iting</w>
n s</w>
T i
ar t
wh ite</w>
m oun
develop ment</w>
p or
con ne
pas s</w>
lar ge</w>
p leas
for get</w>
gu y</w>
ti ves</w>
i P
the m
se a</w>
ud e</w>
hosp ital</w>
b er</w>
t ow
spe e
il ed</w>
ski ll</w>
si a</w>
op en</w>
P ro
e g
as si
nerv ous</w>
nee ds</w>
tic ally</w>
visi ted</w>
com pe
il s</w>
W hile</w>
communic ate</w>
forei gners</w>
ma in
ssi ons</w>
tit le</w>
supp ort</w>
b en
br ing</w>
gir ls</w>
po st</w>
ter m</w>
serv ice</w>
I C</w>
S aturday</w>
st ly</w>
Fr om</w>
Wh en
ex t
bro ther</w>
bi li
ch ing</w>
you ng
inc reas
s p</w>
bo y
1 1
ch ed</w>
R us
s d
P er
rela tion
d ence</w>
see m</w>
ic ally</w>
cont ro
ta ken</w>
go es</w>
you r
ad a</w>
maj or</w>
ar ly</w>
h and
~~ ~~
sk y</w>
ef for
an ci
ol der</w>
en gin
c ele
per form
c es</w>
aga in
te l</w>
Y es</w>
con fi
min e</w>
S p
M ay</w>
s k</w>
disc us
el se</w>
temper ature</w>
======== ========
posi tion</w>
z </w>
un e</w>
blo g</w>
D e
dd le</w>
p are</w>
Th ough</w>
dic tion
war m</w>
t ball</w>
conven i
n b
app li
top ic</w>
le tter</w>
at e
u t
O ur</w>
ki ds</w>
seri ous</w>
J u
v oc
sub ject</w>
mm ing</w>
s is</w>
mar ried</w>
x ed</w>
O sa
nb sp</w>
s our
wan ts</w>
g one</w>
li ked</w>
d ding</w>
brea k</w>
si des</w>
ill ed</w>
li br
E very</w>
A pri
peri od</w>
uni or</w>
feel ings</w>
c ook</w>
s mo
cep tion</w>
N ext</w>
r ate</w>
pre pare</w>
it y
ton ight</w>
oo ls</w>
mat es</w>
u ary</w>
run ning</w>
Singap ore</w>
j ap
Fr ench</w>
engin e
gu ys</w>
f all</w>
recomm end</w>
t ab
Apri l</w>
b ar
sa tis
su per
co ver
poin ts</w>
s som
ou d</w>
lang -8</w>
s li
s end</w>
expre ssion</w>
in d</w>
we ight</w>
E ur
e f</w>
re g
su dden
sp ace</w>
ta ste</w>
sta yed</w>
at a</w>
Ac cording</w>
w oke</w>
TOE IC</w>
op er
ll ing</w>
sc en
buil ding</w>
rea se</w>
ow ers</w>
soci al</w>
a vo
S ep
ur al</w>
lo se</w>
tra vel
o s</w>
sudden ly</w>
h t
again st</w>
d on</w>
origin al</w>
ad d</w>
ima g
on g
: 00</w>
c ed</w>
al ong</w>
Australi a</w>
sp orts</w>
fr u
d ou
ne i
sh are</w>
we b</w>
th ank</w>
terri ble</w>
lo g
S a
d ance</w>
am ount</w>
J o
t or
Tai wan</w>
bo ss</w>
pre fer</w>
happ en</w>
L oc
man ag
C ould</w>
te mber</w>
them selves</w>
at or</w>
rain ing</w>
Ab out</w>
ca ke</w>
no ticed</w>
g lo
tici p
pa ti
Tom orrow</w>
Osa ka</w>
th ird</w>
ne y</w>
recei ved</w>
go al</w>
sh ows</w>
per fect</w>
charac ter</w>
un ci
home work</w>
u lation</w>
ent r
Wor ld</w>
ab ul
d a</w>
me th
g gest</w>
ha te</w>
tra ining</w>
spea ker</w>
v ely</w>
5 0</w>
ben ef
he ad
colle ag
h or
tiv ely</w>
wal king</w>
f lo
da y
fil m</w>
d ate</w>
pho to</w>
ac e
blo ssom
comple tely</w>
j unior</w>
P re
gi ven</w>
trou ble</w>
ak i</w>
gr ound</w>
sh oc
boy friend</w>
mi ddle</w>
doc tor</w>
ss ing</w>
c an
qu e</w>
Sep tember</w>
m ale</w>
" </w>
at s</w>
t end</w>
de fin
N ice</w>
ro om
so c
Fri day</w>
e ce</w>
nor mal</w>
Be fore</w>
d rea
in k</w>
be er</w>
ha ps</w>
cou ple</w>
Th e
gu e</w>
produc ts</w>
en ds</w>
star ting</w>
mess age</w>
h y
c er</w>
includ ing</w>
be low</w>
m p</w>
exc iting</w>
me =</w>
win d
am a</w>
foo ds</w>
lon ger</w>
ho tel</w>
st er
am ong</w>
spee ch</w>
pron unci
di sa
st opped</w>
d enti
re spe
coo king</w>
wor kers</w>
sleep y</w>
ou n</w>
ve ge
c at</w>
na med</w>
E R
Can ada</w>
a th
g on</w>
gir l
F e
rec or
th ou
libr ary</w>
bor ing</w>
ta ught</w>
jo in</w>
on line</w>
H er</w>
dra ma</w>
in e
. I</w>
m ach
on -
gradu ate</w>
pop ulation</w>
diction ary</w>
m n</w>
Loc ke
sp ending</w>
s me
f la
swe et</w>
he av
1 5</w>
in side</w>
clo ck</w>
s mi
or ity
jo ined</w>
bic ycle</w>
loc al</w>
wor k
Ex ception</w>
shi ma</w>
adv ice</w>
cer tain</w>
L sd
Na me=</w>
Locke d=</w>
Lsd Exception</w>
an o</w>
do or</w>
o k</w>
inter national</w>
ent er</w>
ide as</w>
F </w>
P C</w>
Pri ority
Priority =</w>
Se e</w>
M ore
gre en</w>
u es</w>
G </w>
bl ack</w>
sta ff</w>
form al</w>
heav y</w>
c ard</w>
ti al</w>
par tic
resul ts</w>
grap h
appreci ate</w>
ac coun
wa ke</w>
Wi th</w>
ment ary</w>
More over</w>
e ld</w>
un ity</w>
O c
ho ld</w>
D uring</w>
brea k
m om</w>
ex i
cu ri
li on</w>
// www.
bili ty</w>
sa ve</w>
t ext</w>
ani m
d ang
br ought</w>
S orry</w>
environ ment</w>
ar ds</w>
ch oc
sa fe
li kes</w>
re turn</w>
as s</w>
ro ss</w>
at trac
ou ra
Mar ch</w>
K an
cle an</w>
H ar
ch erry</w>
ch es</w>
f ully</w>
min i
home town</w>
gra de</w>
lo gi
your self</w>
mista ke</w>
ge ts</w>
f oc
cat ch</w>
speci fic</w>
. ht
voc abul
teach ing</w>
de gre
ph ys
cho ice</w>
col or</w>
st ry</w>
an k
pronunci ation</w>
A n</w>
Y our</w>
par ticip
A N
k ey</w>
young er</w>
atten tion</w>
m ate</w>
p es</w>
S o
$ </w>
less ons</w>
cer e
exc ept</w>
Wh ich</w>
D V
wor ry</w>
choc ol
p m</w>
ach ed</w>
ke ep
wa days</w>
l ab
curr ent</w>
ari es</w>
holi days</w>
charac ters</w>
l ack</w>
for got</w>
G re
se a
f -
g oo
C hi
An other</w>
ok ay</w>
ti sh</w>
go tten</w>
luc ky</w>
tion ed</w>
a z
f ur
ac tion</w>
g y
a i</w>
org ani
Q u
every body</w>
soc cer</w>
mi ss</w>
as tic</w>
divi du
1 2</w>
ap art
li er</w>
m l</w>
stre et</w>
ke ts</w>
mat eri
h ood</w>
1 2
mon y</w>
in ten
dr ank</w>
con di
li ar</w>
ment al</w>
d ar
fin al</w>
so f
s tic
w el
n oun
trans late</w>
Mon day</w>
N e
ex change</w>
pre par
in ci
jec ts</w>
pro te
h it</w>
se ball</w>
m ul
str u
har der</w>
fe atu
exerci se</w>
# </w>
l er</w>
ch all
si mp
S hi
G od</w>
a mi</w>
f er
wor se</w>
cle an
la w</w>
de ta
are as</w>
vocabul ary</w>
k u</w>
in dividu
sh ops</w>
s m</w>
1 00</w>
underst ood</w>
l at
s day</w>
ser ies</w>
au th
concer t</w>
help ed</w>
U se
ex p
r an</w>
enc ed</w>
easi er</w>
la ugh
t -
it e
N or
b al
acci dent</w>
examin ation</w>
c ir
relation ship</w>
si l
te le
poin ted</w>
bas ed</w>
ca ught</w>
en d
ta in
stor ies</w>
an a</w>
part ment</w>
m it
ac tly</w>
k i</w>
su ally</w>
d en
s ou
we dding</w>
or din
deci de</w>
present ation</w>
hu ge</w>
ap pro
ga in</w>
ell ing</w>
inter view</w>
b ack
st and</w>
conf used</w>
ff ici
hi de
d on
comm a</w>
inc rease</w>
fl owers</w>
fec ture</w>
S ky
si x</w>
bl ue</w>
re pe
I tal
girl friend</w>
health y</w>
st at
ph ras
ll ed</w>
s ick</w>
f y</w>
plan ning</w>
expre ssions</w>
vi ties</w>
Oc to
sleep ing</w>
sup posed</w>
w on</w>
es tion</w>
Au g
st ers</w>
correc tions</w>
ow n
de m
sle pt</w>
perform ance</w>
com b
pl ural</w>
V i
dra w
cent er</w>
, 000</w>
Bri tish</w>
c lear
oc cur
ssi on
tot ally</w>
tu mn</w>
When Use
Un hide
WhenUse d=</w>
Unhide WhenUsed=</w>
c ars</w>
versi on</w>
qu ality</w>
Octo ber</w>
in flu
k ept</w>
ye ar
communic ation</w>
ani sh</w>
dre ss</w>
plan ts</w>
Se mi
p er</w>
ex actly</w>
tab les</w>
nei gh
cr ow
th anks</w>
le ad
win d</w>
pl ant</w>
jo bs</w>
gener al</w>
ad ul
any more</w>
imag ine</w>
anim als</w>
enc oura
1 st</w>
- time</w>
e tic</w>
break fast</w>
A d
loc ated</w>
rep ort</w>
X </w>
dis ap
Hi dden
com pared</w>
Semi Hidden
SemiHidden =</w>
20 10</w>
d ers</w>
ss es</w>
bi le</w>
re gre
medic al</w>
att end</w>
tru th</w>
ti ll</w>
mo tiv
ti ce</w>
c la
opport unity</w>
a th</w>
m ma
ag ing</w>
o ssi
gu i
wal ked</w>
Sky pe</w>
y -
ha i</w>
dri ving</w>
entr ance</w>
effor t</w>
Aug ust</w>
di a</w>
avo id</w>
consi der</w>
es say</w>
cele br
sch ools</w>
cont act</w>
apart ment</w>
fe ll</w>
ter native</w>
reali ze</w>
b ar</w>
compe ti
z ation</w>
D oes</w>
3 0
k o</w>
hi m
L on
fi eld</w>
tr an
person al</w>
ama zing</w>
D id</w>
hel ps</w>
H app
n ature</w>
sol ve</w>
st in
ref er
ang ry</w>
dri ve</w>
comm ents</w>
E n
de pre
moun tain</w>
re gar
high er</w>
emplo ye
ef ully</w>
trans lation</w>
n oun</w>
beg in</w>
con dition</w>
acti vities</w>
b al</w>
ent ed</w>
fi g
new sp
n ood
ssi ve</w>
ba th</w>
h om
speci ally</w>
T u
li sh
c up</w>
e mo
exa ms</w>
di es</w>
cover ed</w>
C a
men tioned</w>
mo der
aw a</w>
ba seball</w>
sp i
gi ves</w>
d anc
ta ins</w>
i or</w>
di ed</w>
bo x</w>
cra zy</w>
ear lier</w>
swi mming</w>
lo ved</w>
M r</w>
di shes</w>
ele mentary</w>
sti tu
Q </w>
J an
a tive</w>
au di
li ter
gi ving</w>
respon si
Ju ly</w>
re si
F or
correc ted</w>
b er
issu e</w>
e ffici
fa shi
z z
pl ans</w>
_ </w>
mi s
T H
f ra
ar r
un k</w>
i sed</w>
twi ce</w>
smi le</w>
li st</w>
uk u
frien dly</w>
t a</w>
K o
de al</w>
fami liar</w>
F u
tri eved</w>
a il
sp ort</w>
st ep</w>
a .
h ands</w>
econom y</w>
n is</w>
par ts</w>
pro ject</w>
econom ic</w>
Un fortunately</w>
stu ff</w>
l u
ca st</w>
bo ard</w>
s mar
le t
p ort</w>
di sh</w>
so ld</w>
ne ga
ca fe</w>
con cent
h op
im medi
U sually</w>
en se</w>
tou ch</w>
flo or</w>
ri c
r ap
du ct</w>
st y</w>
mi d
mu se
o -
happ iness</w>
re ly</w>
ca mer
b ye</w>
li ke
Lon don</w>
in st
ad ver
some day</w>
suc cess
pre v
oo oo
co -
all s</w>
it ely</w>
class mates</w>
} </w>
cere mony</w>
contro l</w>
inter est</w>
wa ste</w>
e al
h one</w>
foll ow</w>
ac tive</w>
custom ers</w>
thou ghts</w>
we ird</w>
play er</w>
i an</w>
sh oes</w>
in du
with in</w>
E specially</w>
si tes</w>
consi der
satis fied</w>
Re trieved</w>
comp la
kn ows</w>
e- mail</w>
s un</w>
di an</w>
+ </w>
pron oun
con clu
N i
me al</w>
The ir</w>
B i
be ha
c anc
t ext
{ </w>
wi se</w>
wonder ing</w>
pro gre
c ts</w>
tri bu
vege tables</w>
gra mma
da ma
electri city</w>
memor i
ca used</w>
s .
P r
f ar
US A</w>
stre ss</w>
for e
Se cond</w>
sun ny</w>
sing le</w>
mo bile</w>
ga z
pi ece</w>
t ough</w>
bro ken</w>
el s</w>
sp here</w>
cre am</w>
adv ant
de c
vol un
4 0</w>
correc tion</w>
su shi</w>
blossom s</w>
rec o
care ful</w>
Be sides</w>
ri de</w>
it ali
hob by</w>
Every one</w>
list ened</w>
we aring</w>
sh ir
Wh o</w>
ch ose</w>
continu ed</w>
a y
p age</w>
chec ked</w>
Ger man</w>
in j
tre es</w>
posi tive</w>
Sp anish</w>
r ul
ten nis</w>
C ol
profe ss
d ents</w>
safe ty</w>
d own
st ro
chocol ate</w>
R o
sci ence</w>
su </w>
: 30</w>
1 5
chang es</w>
sc re
na mes</w>
defin itely</w>
mo de
gener ation</w>
be comes</w>
Th us</w>
s oup</w>
A R
w in</w>
or ity</w>
tou ri
ma gaz
de ath</w>
gu it
acti v
Happ y</w>
c hat</w>
d ings</w>
t ory</w>
de partment</w>
o '
o o</w>
f it</w>
li ed</w>
fi re
gr ow</w>
tu al</w>
u mb
al co
F uku
p ow
ac he</w>
expe ct</w>
photo s</w>
I D</w>
******** ********
y u
St ud
sta ying</w>
pur pose</w>
ma ster</w>
ba g</w>
bi ke</w>
20 11</w>
b a</w>
e mb
sp ite</w>
ou gh
h ind</w>
on i
si ze</w>
conclu sion</w>
g ned</w>
d ro
D ec
pho on</w>
J une</w>
differ ences</w>
e e
H o
tit ude</w>
part -time</w>
in no
ir s</w>
Rus sian</w>
be coming</w>
ic ken</w>
confi dence</w>
dou b
G u
sing ing</w>
phras es</w>
che ap</w>
nega tive</w>
th re
it able</w>
K i
.ht ml</w>
op ened</w>
ri ver</w>
chang ing</w>
some where</w>
at mo
est s</w>
develop ed</w>
drea ms</w>
tit les</w>
bl ood</w>
lim ited</w>
li g
mp les</w>
mach ine</w>
tur al</w>
coo ked</w>
T r
ser ve</w>
o' clock</w>
as su
be ach</w>
bro ad
sh owed</w>
immedi ately</w>
S y
meth od</w>
sa fe</w>
f requ
boo k
cli mb
hur t</w>
conveni ent</w>
wind ow</w>
t on</w>
e an</w>
b read</w>
ici al</w>
underst anding</w>
accoun t</w>
be hind</w>
R a
vi sion</w>
ri ch</w>
pre s
v ate</w>
studi es</w>
vel s</w>
sh ou
mo ving</w>
F ur
pa id</w>
con struc
ac ks</w>
log ical</w>
ar a
on d</w>
mat ch</w>
scen e</w>
profe ssion
hi </w>
d ry</w>
ther more</w>
N ag
at ter
comple te</w>
prop ri
descri be</w>
tic ket</w>
Eng land</w>
p id</w>
gar den</w>
ur a</w>
f ul
recei ve</w>
pre pared</w>
F i
la zy</w>
fre sh</w>
progra ms</w>
ani me</w>
er r
rec ent</w>
star ts</w>
sh r
hu m
memor y</w>
jap anese</w>
beha vi
ap propri
luc k</w>
k it
ur y</w>
P l
ce ll</w>
w ine</w>
U K</w>
introduc ed</w>
bi ggest</w>
impre ssed</w>
pre fecture</w>
s ort</w>
est ed</w>
ne ar
an tly</w>
m m</w>
me at</w>
w ell
sy cho
o d
co sts</w>
volun te
F ort
provi de</w>
te sts</w>
1 8
arti cles</w>
pain ting</w>
n on-
fig ure</w>
O N
medic ine</w>
atmo sphere</w>
ev ents</w>
do cu
wor ker</w>
or ed</w>
s er</w>
in t</w>
colleag ues</w>
j p
No te</w>
ent y</w>
le ad</w>
partic ular</w>
Wh ere</w>
h ol
no vel</w>
19 9
some body</w>
th ous
or dered</w>
no tice</w>
p ra
se par
do gs</w>
l ap
b le
b it
le ep</w>
lea ves</w>
flu ently</w>
er ous</w>
ac ross</w>
W ould</w>
ty pes</w>
li fe
appe ared</w>
answ ered</w>
sel f-
activ ity</w>
M ic
200 8</w>
ri d</w>
st ate</w>
com ment</w>
de ep
moder n</w>
s wee
he at</w>
enjo ying</w>
cont ext</w>
R i
ch i</w>
oun ded</w>
r ace</w>
g ner</w>
prac tic
frien d
d oll
simp ly</w>
disap pointed</w>
k u
hou se
st and
w ar</w>
af fec
pri vate</w>
qu it</w>
di um</w>
respe ct</w>
crow ded</w>
like ly</w>
stu pid</w>
prop er</w>
reco gni
re min
fin anci
rul es</w>
stor es</w>
T wo</w>
feel s</w>
pro duct</w>
w a</w>
spo ke</w>
Ac cent</w>
guit ar</w>
ne t
experi ences</w>
sn ow
s /
rela x</w>
T a
or ted</w>
pa ir</w>
li t
ang a</w>
expe c
anc ed</w>
Jan uary</w>
camer a</w>
con tribu
ho l</w>
har dly</w>
ch icken</w>
ff ic</w>
let ters</w>
g er
requ i
v ic
T E
ad m
dar k</w>
year -
L e
ca mp
st age</w>
cur ry</w>
sen ior</w>
dang erous</w>
Ti me</w>
L a
la u
pi ano</w>
consi dered</w>
fe male</w>
experi enced</w>
pre ss
G ener
glo bal</w>
g ol
it self</w>
him self</w>
fami lies</w>
in stance</w>
sour ces</w>
spi ri
c k
g es</w>
ap ers</w>
shi ps</w>
qu o
he a
j ud
di e</w>
ser ved</w>
ac cording</w>
Fort unately</w>
2 3
g le</w>
m ood</w>
travel ing</w>
appropri ate</w>
ro le</w>
chil d
uni que</w>
f an</w>
ad ded</w>
ail able</w>
sc ared</w>
ex tre
l d
^ _
t ree</w>
t ar
no te</w>
no body</w>
happ ens</w>
se qu
Fur thermore</w>
aw k
mil k</w>
si tting</w>
re leas
H ir
ho st</w>
spo ken</w>
e qui
in a</w>
ac a
g ers</w>
restaur ants</w>
S i
ima ge</w>
l ower</w>
adv ance</w>
v </w>
b ra
bu tt
inv ol
smar t</w>
adver ti
b rain</w>
ha te
re memb
electri c</w>
memor ies</w>
d ness</w>
W </w>
m er</w>
fe ver</w>
any way</w>
ti z
ch an
in -
Y or
DV D</w>
an no
re turned</w>
help ful</w>
sa u
s qu
g a</w>
g ing</w>
featu re
at en</w>
radi o</w>
ter ms</w>
ef fect</w>
dr u
t ro
c ks</w>
an noun
gh tly</w>
cre ate</w>
car ds</w>
uni ties</w>
F es
ossi ble</w>
Eur ope</w>
ty phoon</w>
se ll</w>
sh ort
wh en
ver s</w>
x ing</w>
devel op</w>
Eng lish
as leep</w>
G i
a -
tw are</w>
nu mb
shoc ked</w>
effec tive</w>
si dent</w>
Fes tiv
gen etic</w>
2 5
S pr
stri ct</w>
de ter
A M</w>
c tions</w>
alco hol</w>
con su
bas ic</w>
lo vely</w>
tra ffic</w>
m on</w>
y ment</w>
ou se</w>
M ore</w>
increas ing</w>
is land</w>
sci enti
S outh</w>
E L
on e
se cre
ul arly</w>
au tumn</w>
as ks</w>
solu tion</w>
sea se</w>
b re
suc cess</w>
su al</w>
F ace
pic k</w>
wor th</w>
cl ou
b an
bi es</w>
jec tive</w>
Un ited</w>
ap o
imp ossible</w>
Festiv al</w>
cat s</w>
O R
deci sion</w>
____ ____
m ally</w>
an al
lau gh</w>
hate ver</w>
wh ose</w>
ordin ary</w>
F L</w>
gni fic
Dec e
feature =
gre at
S pe
awk ward</w>
Dece mber</w>
wea k</w>
gradu ated</w>
achi eve</w>
profess or</w>
hon est</w>
mil lion</w>
iP hone</w>
profession al</w>
ric s</w>
A S
plan e</w>
ima gin
ci es</w>
G o
accep t</w>
l ately</w>
c ru
d or
f ant
Su mmer</w>
c op
S ch
atten ded</w>
bro ke</w>
p sycho
Face book</w>
s ons</w>
s en</w>
s op
se me
ri </w>
me ly</w>
wi de</w>
Per haps</w>
ex plan
exa mples</w>
i ld</w>
ph ones</w>
introduc tion</w>
e k</w>
clear ly</w>
D is
sof tware</w>
H T
se at</w>
ad ing</w>
nood les</w>
tech n
in de
com e
foc us</w>
prepar ing</w>
ri te</w>
av ailable</w>
bo tt
newsp aper</w>
de v
play ers</w>
cul tures</w>
j i
gg ing</w>
G r
n ur
poli ce</w>
l ines</w>
Bo th</w>
requ ired</w>
ci ties</w>
ro ck</w>
si ons</w>
f all
de ep</w>
sch edu
fur ther</w>
d om
mo on</w>
spe ed</w>
at ory</w>
o il</w>
when ever</w>
L ong</w>
prop er
r om
ac qu
ent ered</w>
di sease</w>
an e
keep ing</w>
ke tball</w>
progre ss</w>
de st</w>
co ver</w>
On ce</w>
si gn</w>
impro ving</w>
financi al</w>
A T
. jp
el ls</w>
reac tor</w>
ex ha
bu ild</w>
on ic</w>
ell ow</w>
buil t</w>
cre ated</w>
schedu le</w>
Americ ans</w>
competi tion</w>
Spr ing</w>
c ell
as ses</w>
phys ical</w>
employe es</w>
wh om</w>
se as</w>
reli gi
E N
st anding</w>
r ac
success ful</w>
impro ved</w>
bor ed</w>
y aki</w>
releas ed</w>
de ad</w>
ur ed</w>
medi a</w>
ster n</w>
sau ce</w>
hou ses</w>
f le
fire works</w>
seme ster</w>
E ar
A K
l in
off er</w>
Yor k</w>
O b
D s</w>
x i</w>
er ful</w>
prom o
mid night</w>
press ure</w>
s pre
g ood
issu es</w>
cap itali
e th</w>
fi le</w>
rela tives</w>
le g
str on
plan ned</w>
L o
ma th</w>
sme ll</w>
buil dings</w>
mi ssion</w>
1 6
k an
clo sed</w>
gg er</w>
ent u
c y</w>
re ach</w>
correc tly</w>
disa ster</w>
n d</w>
ver age</w>
all ow</w>
e mail</w>
dra w</w>
t ter
Se con
engine ering</w>
seri ously</w>
e ts</w>
room s</w>
goo ds</w>
th erefore</w>
t at
f ir
b ly</w>
m ic
X D</w>
dr unk</w>
St ates</w>
hob bies</w>
ear th</w>
ent er
tow ards</w>
^_ ^</w>
beau ty</w>
sl ow
sh e
1 4
H </w>
hu mi
foo tball</w>
gradu ation</w>
TOE FL</w>
cap ital</w>
1 3
f illed</w>
on able</w>
air port</w>
bo ys</w>
h h
b ank</w>
p an
br u
y es</w>
ly rics</w>
H ey</w>
gr owing</w>
re duce</w>
I ts</w>
sk in</w>
ti me
W in
wa i
so ft</w>
k o
ac tor</w>
No wadays</w>
ci tiz
p ool</w>
dri ver</w>
he si
.com /
inno v
2 5</w>
struc ture</w>
se le
i a</w>
t oo
ve ment</w>
emb ar
we some</w>
On ly</w>
Ital ian</w>
L O
danc ing</w>
1 8</w>
ver s
st ant</w>
so -
lon ely</w>
auth or</w>
K a
gi ft</w>
sub jects</w>
me as
mar ri
direc tly</w>
b ow
St ar
tion ally</w>
con cep
B u
F a
our selves</w>
reac tors</w>
main ly</w>
fl ower</w>
ara oke</w>
un less</w>
di stance</w>
cul tural</w>
C o
ca ses</w>
char ge</w>
br uary</w>
ex hi
celebr ate</w>
as king</w>
degre es</w>
uc k</w>
tot al</w>
gramma tically</w>
Secon dly</w>
@ </w>
r d</w>
form er</w>
me l
fashi on</w>
H u
bu ying</w>
se ven</w>
Y ou
com ic</w>
po e
as pe
pp ed</w>
correc ting</w>
individu al</w>
n t</w>
st ered</w>
i so
sal es</w>
gr ou
regre t</w>
bas ketball</w>
depre ssed</w>
sur vi
ru le</w>
su itable</w>
ther wise</w>
en e
T wi
O kin
neigh b
child hood</w>
an ti
Li ke</w>
C or
ec es</w>
year- old</w>
R E
po st
S ha
opini ons</w>
care er</w>
reg ular</w>
numb ers</w>
ag e
smo king</w>
Fe bruary</w>
trans lated</w>
te eth</w>
ba th
se curi
tr a</w>
over seas</w>
' I</w>
op po
2 nd</w>
s -
lo ves</w>
suc ce
view s</w>
opport unities</w>
ar gu
commun ity</w>
c y
ear n</w>
emp ha
P ER
gradu ally</w>
rep ly</w>
N uclear</w>
f ire</w>
slow ly</w>
all owed</w>
V HT
frequ ently</w>
e aten</w>
pl es</w>
well -
V al
di al
concent rate</w>
en ge</w>
eng th</w>
gy m</w>
exha u
6 0</w>
us ers</w>
mar k</w>
te mple</w>
Li fe</w>
per haps</w>
assi gn
prev ent</w>
lic ated</w>
Na tional</w>
impre ssion</w>
si gnific
t our</w>
war ds</w>
situ ations</w>
s w
app ly</w>
d ne
ag re
the ater</w>
top ics</w>
recomm ended</w>
Y o
the less</w>
a wesome</w>
f at</w>
practic ing</w>
p .
fri ed</w>
se con
uk i</w>
VHT R</w>
tt ed</w>
in dic
ok a</w>
d \/
sk y
L IN
re ci
lea ving</w>
inv ited</w>
H el
surpri se</w>
sin ger</w>
th ir
lear ners</w>
B ud
P hi
m outh</w>
fa iled</w>
c ow
M ac
indu stry</w>
In stead</w>
pres ents</w>
gr ow
ou l</w>
suff ering</w>
o ds</w>
ma g
i di
O N</w>
a mb
materi als</w>
sh y</w>
pe t</w>
effec ts</w>
k illed</w>
fla v
g ry</w>
d ent
ri sk</w>
J </w>
on to</w>
ki ll</w>
sur r
in y</w>
ha bit</w>
ty pic
1 7
li e</w>
rememb ered</w>
O k
dd en</w>
Inter national</w>
se ction</w>
Fr ance</w>
at titude</w>
k ai
es ti
depen ds</w>
pi eces</w>
C D</w>
Th ose</w>
A sian</w>
includ e</w>
condi tion
a ds</w>
vari ety</w>
ar m</w>
i gn
sing ular</w>
wel come</w>
sub titles</w>
B B
sour ce</w>
1 3</w>
fic ation</w>
stru gg
behavi or</w>
an xi
Eur op
d ata</w>
M an
comp licated</w>
mi ssed</w>
gl asses</w>
ey e</w>
l o</w>
vi ously</w>
h ang</w>
2 4</w>
m anga</w>
1 6</w>
custom er</w>
ab solu
n al</w>
for ce</w>
fi ght</w>
C ity</w>
f ly</w>
part ner</w>
ur ch</w>
cont ent</w>
re duc
stom ach</w>
po ll
develop ing</w>
appe ar</w>
curr ently</w>
b la
re sear
scre en</w>
doll ars</w>
di sp
T ra
hun gry</w>
H Y
si ght</w>
vi l</w>
lo ad</w>
securi ty</w>
I s
lec ture</w>
~~~~ ~~~~
f o
in correct</w>
ill u
extre mely</w>
G ra
b ad
grand mother</w>
rela xed</w>
st le</w>
tre at
con tra
elec tr
manag er</w>
per fec
ref re
car efully</w>
concer ned</w>
g -
every where</w>
\/ \/</w>
Ger many</w>
benef its</w>
a k</w>
the me</w>
no se</w>
us age</w>
e en</w>
sp r
appli cation</w>
entu ally</w>
on ed</w>
fi f
deep ly</w>
ep iso
c in
vi a</w>
for d</w>
W est
draw ing</w>
swee ts</w>
c ro
ite ms</w>
bir th</w>
con tr
g ri
Y u
sm oo
sp or
1 00
c ry</w>
1 4</w>
a verage</w>
embar ras
Sch ool</w>
str ong
T ha
for ever</w>
g ent
H ok
minu te</w>
spe c
t elling</w>
me als</w>
muse um</w>
conne ct</w>
grow th</w>
b ul
sha pe</w>
Jo h
or ies</w>
val ue</w>
exc ell
vi ol
chall eng
LIN K</w>
gener ally</w>
u tion</w>
w all</w>
w hatever</w>
marri age</w>
for med</w>
cha tting</w>
imp lies</w>
HY PER
HYPER LINK</w>
D es
F ir
S en
con v
cir cu
grou ps</w>
G e
z u
8 0</w>
si gn
for ms</w>
fl u</w>
si ght
super market</w>
shr ine</w>
~~ </w>
i denti
stat ement</w>
E S
z a</w>
x es</w>
le -
dr op</w>
di aries</w>
magaz ine</w>
Okin awa</w>
B us
k id</w>
ac ked</w>
G oo
s a</w>
p ed</w>
t ch</w>
mean ings</w>
Vi et
b ag
dra mas</w>
recor d</w>
in gre
la tions</w>
help ing</w>
er ence</w>
any where</w>
t le</w>
mess ages</w>
chall enge</w>
pla ys</w>
vi ll
graph y</w>
near by</w>
car ry</w>
fac ili
visi ting</w>
qui et</w>
conveni ence</w>
al ternative</w>
al bu
N O
ing ly</w>
ti re
re sources</w>
poli cy</w>
Rus sia</w>
nor mally</w>
cu st
oc k</w>
dem ic</w>
ca sual</w>
Sh ould</w>
r ying</w>
thous and</w>
We dne
ei j
qu ali
M e</w>
or ing</w>
cal m</w>
volunte er</w>
st es</w>
tom a
deta ils</w>
R F
s mil
tra ins</w>
degre e</w>
A pp
ca kes</w>
ingre di
re ma
di r
y a
A M
I S
y er</w>
T ak
ow ner</w>
cr ying</w>
up set</w>
val u
fant astic</w>
ani mation</w>
di et</w>
f light</w>
D on
k m</w>
No ve
re ality</w>
serv ices</w>
po int
In dia</w>
ad vi
be long</w>
vide os</w>
exhau sted</w>
n e</w>
min ation</w>
he ar
di g
no vels</w>
b ing</w>
ad e</w>
manag ement</w>
f ts</w>
he aring</w>
pr oud</w>
H on
su mm
conversa tions</w>
plac ed</w>
T ake</w>
person ality</w>
ur sday</w>
hesi t
U R
m o</w>
excell ent</w>
in k
Y ok
colleag ue</w>
sun ami</w>
K ong</w>
u l</w>
the sis</w>
adul ts</w>
th us</w>
A N</w>
pati ent</w>
P u
doub t</w>
par ent</w>
m ur
ad dress</w>
forei gner</w>
difficul ty</w>
ach es</w>
o ya</w>
strong ly</w>
s se
prote ct</w>
pic ked</w>
200 7</w>
butt on</w>
explan ation</w>
Nove mber</w>
r ar
th ly</w>
l and
lic ense</w>
sy mp
hum ans</w>
il ing</w>
ne arly</w>
wonder ed</w>
mo stly</w>
Tu es
com </w>
a a
expla ined</w>
motiv ation</w>
West er
de sk</w>
attrac tive</w>
3 rd</w>
ref er</w>
ther n</w>
ag er</w>
m ir
no wadays</w>
Hok kai
r are</w>
enti re</w>
journ als</w>
stra tion</w>
wi lling</w>
regi stered</w>
ex tra</w>
fi x</w>
tic kets</w>
a ff
com par
W ow</w>
hi stor
uni versi
ha ir
c ycle</w>
1 .
rain ed</w>
ani mal</w>
mu m</w>
ea se</w>
compu ters</w>
D ear</w>
pleas ant</w>
su ggest</w>
M c
h an
ar a</w>
wri ter</w>
b il
ad ed</w>
some how</w>
sup pose</w>
dr ed</w>
si on
R ef
car to
te en</w>
in struc
depen dent</w>
i m</w>
d om</w>
ch en</w>
R ight</w>
A L
shir t</w>
Lang u
influ ence</w>
head ache</w>
st -
li ghts</w>
pati ents</w>
D a
foo t</w>
ac cent</w>
r ent</w>
ough out</w>
b ud
as soci
syste ms</w>
stand ard</w>
s at</w>
sh o
comm erci
un fortunately</w>
poli cies</w>
wor e</w>
sugg ested</w>
U N
W at
man age</w>
I T</w>
h ang
I C
s cor
s low</w>
Wi ll</w>
sli ghtly</w>
Wedne sday</w>
a king</w>
r ough</w>
P M</w>
po ten
kan ji</w>
ver theless</w>
rar ely</w>
Hokkai do</w>
ach ing</w>
Te ch
Fir stly</w>
RF ID</w>
mo di
u res</w>
Twi tter</w>
su it</w>
la dy</w>
ener y</w>
memori ze</w>
Y ea
reli eved</w>
re ached</w>
e qu
l oud</w>
O M
la un
ch in
temp or
b y
responsi bility</w>
lit ary</w>
T on
g as</w>
fe ar</w>
gl ass</w>
n or</w>
or i</w>
ra men</w>
construc tion</w>
5 0
st ar</w>
perfec tly</w>
g ar</w>
at su
bi gger</w>
qu ar
Se oul</w>
H an
M us
wor st</w>
str ang
poli te</w>
go als</w>
re ll
men tion</w>
om i
lap top</w>
materi al</w>
ta sty</w>
ch urch</w>
drin ks</w>
es cap
clean ing</w>
wa ter
de cl
pre sident</w>
l ls</w>
sh ower</w>
re view</w>
sur f
la w
mar ks</w>
wa sh</w>
H ong</w>
pre dic
1 7</w>
G ol
ar ch
be lon
discus s</w>
hun dred</w>
ac tions</w>
Th ursday</w>
d ant</w>
prac ticed</w>
ri ding</w>
ent ine</w>
man u
oppo site</w>
se min
Th ree</w>
ari ly</w>
B ye</w>
sugg estion</w>
tele vision</w>
S ud
te sting</w>
cust om</w>
o logy</w>
Bud d
p tion</w>
sl ang</w>
r or</w>
te en
W ri
de cor
L ove</w>
N ew
swi m</w>
e .
fav ou
absolu tely</w>
4 th</w>
increas ed</w>
jo ke</w>
es sen
trans l
Goo gle</w>
S te
ir y</w>
fin ding</w>
Europ ean</w>
Tues day</w>
umb rell
Al ternative</w>
spre ad</w>
tran spor
che aper</w>
o shima</w>
M t</w>
se c
cow or
b right</w>
se ly</w>
pr in
W a
we t</w>
th row</w>
sal ary</w>
c rea
est ab
s or
oc ca
a h</w>
effor ts</w>
answ ers</w>
i er</w>
n ation</w>
lab or
tt e</w>
pro ces
in sp
natur ally</w>
regi on</w>
moun tains</w>
Yok o
D o
le y</w>
C up</w>
com ics</w>
oun d
tain ly</w>
adul t</w>
sky pe</w>
T -
happ ening</w>
in stru
hun ting</w>
a st
tr ack</w>
tow ard</w>
mi litary</w>
wi ki
mode l</w>
reas onable</w>
b its</w>
vic ti
kit chen</w>
tur ning</w>
war ming</w>
requi res</w>
il and</w>
th ro
ref ers</w>
Sh ang
appe ar
dr opped</w>
ag ue</w>
In tro
C ar
d ol
adv anced</w>
pp er</w>
int el
appli ed</w>
ad jective</w>
citiz ens</w>
l an
\/ 0
favou rite</w>
+ +
m .</w>
B ra
tre at</w>
I V</w>
t ask</w>
stitu te</w>
dama ge</w>
sight seeing</w>
O r
** *</w>
st ars</w>
E ach</w>
de p
a ms</w>
Some one</w>
text book</w>
aca demic</w>
d ad</w>
C he
m all</w>
ac cess</w>
v y</w>
U se</w>
t ool</w>
pe ace</w>
: 00
ver bs</w>
att ached</w>
When ever</w>
typic al</w>
D ra
w ood</w>
bo ar
man aged</w>
T hai</w>
y ellow</w>
Nag oya</w>
universi ties</w>
si ty</w>
ha ma</w>
gu es
all ow
ton gue</w>
ath on</w>
Tha iland</w>
pr ay</w>
kin der
dis play</w>
ac y</w>
P i
sh own</w>
l ying</w>
pu tting</w>
fun ction</w>
be ar</w>
tra v
te ars</w>
difficul ties</w>
M ini
s an</w>
d ont</w>
be ef</w>
dis covered</w>
fu el</w>
enjo y
condi tions</w>
sc enery</w>
O O
7 0</w>
fi ll</w>
s ang</w>
refer ring</w>
.jp \/
spe lling</w>
stron ger</w>
thr oughout</w>
mp i
over come</w>
po sted</w>
benef it</w>
dro ve</w>
re st
import ance</w>
jap an</w>
hel lo</w>
O ther</w>
B eij
par ties</w>
pleas ure</w>
charac ter
arri ve</w>
V ery</w>
mi ssing</w>
rep lied</w>
exhi bi
ho t
Me dium</w>
f ro
sur ance</w>
Val entine</w>
cre di
bir d</w>
foll ows</w>
logi es</w>
de spite</w>
Yea h</w>
S ur
H ence</w>
fil ms</w>
confi dent</w>
pro duce</w>
high ly</w>
advant ages</w>
al u
T ry</w>
j un
touri sts</w>
p ot</w>
fa ster</w>
sal t</w>
ma ils</w>
inter pre
mus ical</w>
pleas ed</w>
particip ate</w>
feature= related</w>
k ore
my st
ad dic
wa ited</w>
oper ation</w>
thin ks</w>
conf using</w>
H e
t ells</w>
fu </w>
ei ght</w>
y \/
ear ning</w>
beli ev
mul ti
up on</w>
abili ties</w>
A gain</w>
arr ang
r en
ak u
pas s
daugh ters</w>
per cent</w>
laugh ed</w>
Beij ing</w>
Har ry</w>
smo ke</w>
c ried</w>
treat ment</w>
or ful</w>
A sia</w>
G o</w>
Par k</w>
ex ic
sc ary</w>
================ ================
liter ature</w>
affec ted</w>
meth ods</w>
ca uses</w>
Fuku shima</w>
al ing</w>
de b
2 1</w>
cour ses</w>
1 9</w>
accep ted</w>
ci al</w>
Shang hai</w>
d ney</w>
transpor tation</w>
fe et</w>
ca tions</w>
r ound</w>
poten tial</w>
adverti se
ta stes</w>
se -
sur g
col ors</w>
H A
Wi th
C ur
A fri
acci dents</w>
er t</w>
od d</w>
albu m</w>
com mon
n ow
pri ces</w>
clou dy</w>
2 2</w>
p op</w>
l ink</w>
proper ly</w>
ingredi ents</w>
sh oo
includ es</w>
M al
ne l</w>
fa ul
sub way</w>
audi ence</w>
in f
fa ir</w>
cha ir</w>
M exic
to -
le gs</w>
19 8
fac tors</w>
s ore</w>
mus ici
ta sted</w>
thro at</w>
Y O
e th
gre w</w>
ac i
E 3</w>
de stin
. .
** </w>
Al most</w>
high -
sm all
fru it</w>
fall ing</w>
ri se</w>
laugh ing</w>
it ec
br and</w>
O ly
we stern</w>
Ha wai
it ting</w>
any body</w>
mo tor
t sunami</w>
be t</w>
in es
pre cious</w>
invol ved</w>
kinder gar
B as
g ency</w>
fac tory</w>
cent ury</w>
ha ha
solu tions</w>
B e</w>
b les</w>
P S</w>
curi ous</w>
shou l
Wri ting</w>
ob ject</w>
n ap</w>
l ow
lead er</w>
gui de</w>
oun ding</w>
se x
her self</w>
eg g</w>
ti </w>
ac c
hand le</w>
lat est</w>
p d
z es</w>
or ter</w>
U sing</w>
occur red</w>
li pp
gh ting</w>
f our
se x</w>
in si
ill ing</w>
anci ent</w>
Nor th</w>
eal and</w>
pow erful</w>
e mer
spea ks</w>
st ances</w>
att le</w>
concep t</w>
s per
denti st</w>
C ha
to i
chin ese</w>
p ul
200 5</w>
B l
go d</w>
off icial</w>
t asks</w>
Ne vertheless</w>
G a
p ing</w>
exi st</w>
pronoun ce</w>
announ ced</w>
b age</w>
bir ds</w>
ch ances</w>
u si
sal e</w>
Langu age</w>
Sud den
hea vi
m al
aw are</w>
sel ling</w>
sh el
produc tion</w>
impre ssive</w>
bru sh</w>
S ci
200 4</w>
enjoy able</w>
en ess</w>
Ex a
clo ser</w>
semin ar</w>
Oly mp
al d</w>
por k</w>
Sudden ly</w>
ju mp
fa il
conne cted</w>
I mp
gg ed</w>
umbrell a</w>
Yoko hama</w>
l ou
o h</w>
fac e
Every thing</w>
cri sis</w>
circu m
es tions</w>
th ered</w>
stra ight</w>
fru str
de stro
apo logi
E i
K e
f are</w>
L ately</w>
ve ill
ni ght
secre t</w>
essen tial</w>
be at</w>
eg gs</w>
pur cha
humi d</w>
2 9
e ars</w>
the ma
00 0
ta x</w>
un usual</w>
g en</w>
y u</w>
E v
p ages</w>
e di
advant age</w>
pro file</w>
♪ </w>
pro f
bott om</w>
sa ke</w>
fl at</w>
uk u</w>
un comfortable</w>
canc er</w>
sh ine</w>
lim it</w>
ro b
relation ships</w>
re d
se t
m ary</w>
for ced</w>
T S</w>
t ex
dec reas
dir ty</w>
ali ve</w>
ac tors</w>
co- workers</w>
rela xing</w>
vill age</w>
com mu
Z ealand</w>
fi el
is ing</w>
beli eved</w>
arti st</w>
ra ise</w>
gol f</w>
signific ant</w>
- 8
ro de</w>
Wester n</w>
g ate</w>
high est</w>
sh ar
su gar</w>
l ay</w>
foll owed</w>
poli tical</w>
emplo yment</w>
anc y</w>
engine ers</w>
ta tions</w>
l un
on e-
men u</w>
y ers</w>
org /
back ground</w>
point ment</w>
direc t</w>
p apers</w>
jo gging</w>
s y</w>
T or
h ic
all ows</w>
r ude</w>
Joh n</w>
imp le
s tic</w>
tech ni
possi bility</w>
In dian</w>
fac es</w>
Hi gh</w>
tw enty</w>
J e
m ers</w>
ab </w>
I M
be ans</w>
k a
\ \
cont ents</w>
comple x</w>
r an
f ans</w>
p hi
3 D</w>
ic y</w>
cor ner</w>
tur ns</w>
effici ent</w>
surf ing</w>
p en</w>
Chi l
Li st</w>
spiri t</w>
hor ri
et ings</w>
ref le
Mi y
Gol den</w>
st ep
Can a
main tain</w>
veill ance</w>
read er</w>
c ting</w>
prom ised</w>
appear ance</w>
in surance</w>
af ford</w>
exhibi tion</w>
ac king</w>
mon o</w>
bor r
200 6</w>
TH E</w>
H ope</w>
at ors</w>
- year-old</w>
2 3</w>
flu ent</w>
encoura ge</w>
Spe aking</w>
re ve
be l
mi xed</w>
ti li
L it
ni a</w>
d v
T ur
op ening</w>
er -
cl in
tiv ity</w>
Gre at</w>
ic hi</w>
valu able</w>
be d
de ca
lo sing</w>
wa shing</w>
az z</w>
stic k</w>
amb i
for gotten</w>
Fu ji</w>
App le</w>
f as
Ital y</w>
lo cation</w>
Com ment</w>
twi tter</w>
br an
Some thing</w>
character is
A f
it a</w>
ent al</w>
li shed</w>
comb ine</w>
r oo
Kore ans</w>
sen si
fa il</w>
p ink</w>
anal y
techno logies</w>
G en
clo thing</w>
t \/
pi zz
4 0
w anese</w>
d less</w>
off ic
assu me</w>
k araoke</w>
^ ^
a kes</w>
y .
de f
n ic
G ir
ex </w>
requ est</w>
cou ra
un t</w>
com pre
coun ter</w>
ga ined</w>
dig ital</w>
rain s</w>
kindergar ten</w>
ver se</w>
Po tter</w>
Phi lipp
lo ss</w>
inv est
Tai wanese</w>
tu be</w>
br ings</w>
concer n</w>
fre sh
ace ful</w>
err ors</w>
E R</w>
conf ir
leg al</w>
featu res</w>
Sy dney</w>
O ri
m bo
2 9</w>
produc ed</w>
d le</w>
Par ty</w>
blossom </w>
desi gned</w>
rep orted</w>
C l
DV Ds</w>
boar ding</w>
f ol
equi p
h all</w>
suff ici
prom ise</w>
recogni ze</w>
2 6
X X
Chil dren</w>
cl er
no te
in come</w>
pain ful</w>
bath room</w>
as se
9 0</w>
cri tici
sup er</w>
ta xi</w>
P a
friend ship</w>
small er</w>
radi o
aspe cts</w>
2 7
2 .
desi re</w>
posi tions</w>
fi xed</w>
clean ed</w>
contra st</w>
ir o</w>
radi ation</w>
Qu estion</w>
surg ery</w>
est ly</w>
web sites</w>
episo de</w>
Ton ight</w>
tr ust</w>
p ity</w>
individu als</w>
repe at</w>
hol ding</w>
om en
u ms</w>
s and
ac cur
anxi ous</w>
bus ines
Y a
be ings</w>
atu res</w>
con tains</w>
requ ire</w>
sear ching</w>
religi on</w>
arch itec
th in</w>
4 5</w>
suff er</w>
jour ney</w>
i st</w>
bo ttle</w>
exp lo
p atter
psycho logy</w>
po sse
Intro duc
str ate
docu ments</w>
English -
mb ur
speci ali
S N
lo sop
B a
ed om</w>
y ama</w>
su rely</w>
' the</w>
- up</w>
un able</w>
TO </w>
broad ca
U .
un natural</w>
come dy</w>
ro ll</w>
fl ow</w>
clas sm
serv ation</w>
pri ority</w>
assign ment</w>
g or
er a</w>
g ly</w>
Jap ane
L earning</w>
con sul
ev entually</w>
2 8
so y</w>
Hawai i</w>
sh ot</w>
g ro
pas sing</w>
no ise</w>
fas cin
bal ance</w>
str ength</w>
pri mary</w>
b an</w>
ca tional</w>
vol u
g as
na tion
survi ve</w>
cer tainly</w>
we st</w>
ph en
consider ing</w>
Hel p</w>
st one</w>
c ab
L uc
rec over</w>
mean ing
tou ched</w>
ra ised</w>
separ ate</w>
jo y</w>
interest s</w>
mar ry</w>
ai m</w>
f lies</w>
rela tively</w>
common ly</w>
I K
g in</w>
con st
di stin
sp ot</w>
Su ch</w>
dis agree</w>
ate ful</w>
coun t</w>
With out</w>
coo per
her o</w>
discus sion</w>
fiel ds</w>
ac ting</w>
app ed</w>
M in
M other</w>
Un til</w>
tempor ary</w>
al -
p x</w>
kn owing</w>
bo iled</w>
tele phone</w>
Re ading</w>
A h</w>
gr own</w>
class room</w>
bow l</w>
electr onic</w>
Chri sti
Kan ji</w>
ite m</w>
bu cks</w>
classm ate</w>
fore cast</w>
en th
ar gue</w>
ch an</w>
go v
exc ep
th ank
responsi ble</w>
remin ds</w>
sh all</w>
Cor rec
re -
le ts</w>
br ow
ing \/
r ab
includ ed</w>
direc tor</w>
deter min
techn ical</w>
en -
cl ing</w>
sol ved</w>
facili ties</w>
victi ms</w>
ve hic
v a
er ences</w>
nu l</w>
prop o
sear ched</w>
H O
Be st</w>
Fri ends</w>
Dis ney</w>
d y
wa ve</w>
ir ri
ki ly</w>
emp ty</w>
stre ets</w>
compre h
A m</w>
ta ining</w>
lo aded</w>
an tic</w>
imp act</w>
S pain</w>
iP ad</w>
mit ted</w>
lig ent</w>
dor mit
condition er</w>
n am</w>
s al</w>
re su
sal on</w>
noun s</w>
remin ded</w>
S .</w>
c ket</w>
u ri
neigh bor
di d
tit led</w>
pre fer
cir cle</w>
che er</w>
Australi an</w>
sever e</w>
sn owing</w>
o therwise</w>
in king</w>
af fect</w>
deta il</w>
br own</w>
blo om</w>
n ar
some what</w>
el der</w>
ex per
ter na
Par is</w>
y cles</w>
ca stle</w>
tire ment</w>
on y
E mp
ma ss
me ters</w>
Tu be</w>
dent ally</w>
histor ical</w>
S an</w>
or al</w>
ad ap
Tech no
ar ity</w>
am bo
t un
app le</w>
direc tion</w>
succe ed</w>
face book</w>
B r
we ak
pr inci
K in
en h
p ha
me t
re place</w>
Every body</w>
oo king</w>
depen ding</w>
T ri
di scri
gr ateful</w>
prac tical</w>
mar athon</w>
T y
p ite</w>
e duc
tre ated</w>
conf erence</w>
appe ars</w>
begin s</w>
discus sed</w>
scen es</w>
Des pite</w>
3 .
con duc
m it</w>
T al
pas sion</w>
con test</w>
sh owing</w>
aw ful</w>
fini shing</w>
un c
Ear th</w>
ven tion</w>
cli ck</w>
We ek</w>
Budd hi
pizz a</w>
ide al</w>
dre w</w>
cell phone</w>
cha tted</w>
un dant</w>
ac comp
st ood</w>
har d
chec king</w>
Y ama
grap h</w>
di st
Tr ans
m so-
enth usi
b on
us er</w>
dis like</w>
5 00</w>
ous in</w>
ou ver</w>
t our
all ed</w>
Com p
A p
・ ・
and -
ing -
seas ons</w>
pe i</w>
f ying</w>
C ali
publi shed</w>
Au tumn</w>
in dependent</w>
ke y
V anc
stre ssed</w>
vac y</w>
climb ing</w>
borr owed</w>
z on</w>
B ir
da i</w>
la yed</w>
Ha ving</w>
iP od</w>
in formal</w>
y ond</w>
ev alu
phen omen
sp are</w>
horri ble</w>
E -
b es</w>
a tion
call s</w>
pre ss</w>
provi ded</w>
engine er</w>
inci dent</w>
Bra z
ma thema
A ma
fort un
th y</w>
ad op
der ing</w>
p ack
N Y</w>
lat ter</w>
manu fac
in o</w>
B ar
he ll</w>
the ory</w>
respon se</w>
achi ev
A P
o li
g i</w>
- in-
co- worker</w>
life style</w>
off ered</w>
comple ted</w>
elec tion</w>
l ands</w>
ni vers
ad y</w>
2 6</w>
ext ent</w>
heavi ly</w>
sur veillance</w>
it ation</w>
all er
n it
b ac
col der</w>
G rid</w>
L E
wi de
for est</w>
sy n
we i
origin ally</w>
su e</w>
fre edom</w>
c ousin</w>
Vanc ouver</w>
S er
om a</w>
st a</w>
pp ing</w>
s or</w>
A C
n ine</w>
2 8</w>
consi sts</w>
fre e
per form</w>
week ends</w>
effici ency</w>
Ko be</w>
c ked</w>
v als</w>
ta ined</w>
IN G</w>
tar get</w>
Z </w>
m my</w>
ex -
rep orts</w>
or o</w>
pa th</w>
c el
b ands</w>
Pro b
lab </w>
dem and</w>
embarras sed</w>
^ -
d it</w>
A ng
s ks</w>
sa ving</w>
wa it
beg un</w>
travel ed</w>
partic ularly</w>
fail ure</w>
dormit ory</w>
R O
re lease</w>
gu ests</w>
step s</w>
A B
car ried</w>
provi des</w>
lead ing</w>
gi fts</w>
ch er</w>
equip ment</w>
t all</w>
ch est
employe e</w>
Philipp ines</w>
re tirement</w>
i mm
air plane</w>
escap e</w>
pd f</w>
fi ghting</w>
dv ant
coura ge</w>
r ange</w>
room mate</w>
ak a
anno ying</w>
bag s</w>
toi let</w>
Viet nam</w>
wi ld</w>
5 th</w>
par king</w>
E N</w>
Mic ha
neighbor hood</w>
par ag
st able</w>
ra w</w>
hor se</w>
at om
oc cu
wa shed</w>
un g</w>
ant a</w>
fi shing</w>
wor ld
st uck</w>
Hir oshima</w>
6 0
i -
e li
P art</w>
sch oo
great ly</w>
mo to</w>
m ic</w>
sta irs</w>
be an</w>
bas ically</w>
dial ec
faul t</w>
Cana dian</w>
ap e</w>
poli tics</w>
2 4
an -
bi o
rec over
n ick
wi shes</w>
Prob ably</w>
W ar</w>
R es
cri me</w>
cri min
fun ctions</w>
M or
C ome</w>
mm m</w>
ac tre
earthqu akes</w>
W al
comp are</w>
encoura ged</w>
bud get</w>
l li
coo ki
health care</w>
mat ely</w>
s ounded</w>
sy mbo
ju ice</w>
hur ry</w>
K u
ch or
wh ere
e ager</w>
b ow</w>
seas es</w>
poe m</w>
magaz ines</w>
allow een</w>
t l
p at
view ing</w>
dama ged</w>
book store</w>
SN S</w>
ac ted</w>
L ook</w>
t ools</w>
nivers ary</w>
.ht m</w>
gh ter</w>
suff ered</w>
mach ines</w>
Mc Don
t an</w>
fac ing</w>
cer ti
pl astic</w>
pl enty</w>
camp us</w>
scienti fic</w>
some time</w>
com position</w>
recor ded</w>
cli mate</w>
reg ularly</w>
ap pointment</w>
C E
pre gn
at temp
ath le
regar ding</w>
p it
enter tain
cre dit</w>
I I</w>
sing ly</w>
sn acks</w>
commerci al</w>
disa dvant
che ese</w>
cho sen</w>
labor atory</w>
trou bles</w>
M S
j ac
it ted</w>
2 00</w>
ri ghts</w>
keep s</w>
too th</w>
Micha el</w>
g le
se tting</w>
k il
sa tion</w>
Di ary</w>
con sequ
sp icy</w>
y o</w>
p al
S el
s ..</w>
ba se</w>
gra des</w>
net work</w>
au toma
te ams</w>
pe aceful</w>
k g</w>
int end</w>
conne ction</w>
M r
B A</w>
ri d
I N</w>
fru its</w>
t iny</w>
ro ads</w>
tr y
e vi
E ast</w>
ob vious</w>
circum stances</w>
Tai pei</w>
mb le</w>
g are
desi gn
un necessary</w>
B ut
war mer</w>
impro vement</w>
su dden</w>
sugg estions</w>
bic ycles</w>
be yond</w>
^- ^</w>
P h
mp tion</w>
ar ms</w>
H ouse</w>
b om
ca mp</w>
r ou
P la
as y</w>
ho ku</w>
don e
phi losop
F l
S ho
c tive</w>
a head</w>
b atter
contribu te</w>
trav elling</w>
M y
la ke</w>
E du
ex ten
in ation</w>
er al</w>
pri ze</w>
di seases</w>
ment ed</w>
newsp apers</w>
da iry</w>
T est</w>
suffici ent</w>
di v
wal let</w>
sou ven
ac tual</w>
li t</w>
cra m</w>
el ed</w>
B el
we ap
na me
ex act</w>
re main</w>
cha mpi
pa ying</w>
mar ke
cor por
T an
w oo
car ri
swe at</w>
Th rough</w>
cho ices</w>
indu stri
kin dness</w>
I S</w>
nor th</w>
compla in</w>
O k</w>
W as</w>
Com m
S wi
as ha
t ori
bab ies</w>
grand father</w>
motiv ated</w>
nood le</w>
thir ty</w>
per formed</w>
ma ke
are well</w>
surpri sing</w>
st ands</w>
fre ely</w>
dou ble</w>
jud ge</w>
u m
al ty</w>
Be ing</w>
thre w</w>
ha bits</w>
T su
n one</w>
mic ro
ha mbur
I EL
rom antic</w>
go ld</w>
or ting</w>
mi x</w>
ther ing</w>
refer ence</w>
lang -8
H er
su s</w>
g ur
S tr
**************** ****************
smoo thly</w>
* -
ar my</w>
as s
S tre
ac ts</w>
is y</w>
ne ck</w>
tra dition</w>
lar gest</w>
nei ther</w>
inten ded</w>
adm it</w>
work place</w>
edu cational</w>
li qu
ell ed</w>
fin ger</w>
pain t</w>
ha haha</w>
Ho li
climb </w>
Gener ally</w>
agre ed</w>
H alloween</w>
si x
e \/
be sides</w>
Mus ic</w>
I T
te dly</w>
ys is</w>
Gener ation</w>
Y et</w>
ing ing</w>
acqu a
underst and
sc ale</w>
H eal
z h
K ing</w>
P ic
bo at</w>
ca f
sch ol
atten ding</w>
hun g</w>
i d
w ing</w>
mat ters</w>
laun dry</w>
sun shine</w>
C H
D ai
for mation</w>
tr act</w>
organi zation</w>
S U
ar in</w>
co at</w>
a \/
be side</w>
stu ff
Win ter</w>
sele cted</w>
ac </w>
blo om
bli c</w>
c al</w>
bur den</w>
t .
se ssion</w>
Ha ha</w>
trans fer</w>
Cali for
R ep
un known</w>
ed ul
arti sts</w>
wind ows</w>
hesit ate</w>
7 0
est ing</w>
B hu
ve -
E lec
per sons</w>
lon g-
pri vacy</w>
th at
M ur
t ant</w>
flav or</w>
A m
it es</w>
2 7</w>
No thing</w>
sh ared</w>
ter ia</w>
pe op
vo te</w>
re present
sch edul
i son</w>
anc est
tru ly</w>
great est</w>
accep table</w>
inj ured</w>
Ob ama</w>
te e</w>
experi ment</w>
he ight</w>
i ll</w>
p ants</w>
th ick</w>
exerci ses</w>
secon ds</w>
ci gare
gh o
na ment</w>
ad ding</w>
emo tions</w>
Afri ca</w>
1 -
D ue</w>
i dly</w>
frustr ated</w>
. org/
distin gui
r hy
fri ger
z en</w>
fl ying</w>
200 9
Th ird</w>
re move</w>
sil ly</w>
tal ks</w>
oc ean</w>
Is land</w>
st ock</w>
D r
z u</w>
pas sive</w>
sh orter</w>
Af ter
no isy</w>
j e
' a</w>
k in</w>
fun ds</w>
en sure</w>
teach es</w>
class ical</w>
re vi
Be tter</w>
Sh in
Stud ying</w>
capitali zed</w>
Ref erences</w>
asha med</w>
ag a</w>
exc use</w>
dra ma
begin ner</w>
mar kets</w>
irri t
r a</w>
read ers</w>
s outh</w>
ab les</w>
In done
su m</w>
he \/
S tu
U T</w>
custom s</w>
s oo
op tion</w>
supp ly</w>
Di ff
c ine
sou l</w>
an niversary</w>
z e
an e</w>
ski ing</w>
S till</w>
k ura</w>
g ic</w>
Ch ar
econom ics</w>
: 30
innov ation</w>
IEL TS</w>
r al</w>
S we
lo ver</w>
sa i</w>
cont ent
r out
sty les</w>
d ency</w>
comb ined</w>
dec rease</w>
parag rap
com for
sol ar</w>
happ ily</w>
environ mental</w>
broad cast</w>
di tionally</w>
and arin</w>
e ye
call ing</w>
. gov
3 -
h y</w>
s and</w>
200 0</w>
H ak
appreci ated</w>
effec tively</w>
A s
ir ing</w>
d al</w>
thin g
ga ther</w>
B rea
shoc k</w>
Eng ine
de man
mag ic</w>
You Tube</w>
re friger
p ack</w>
L at
stat us</w>
in credi
sensi tive</w>
a unt</w>
D S</w>
is m</w>
fra me</w>
inv esti
smil ing</w>
addic ted</w>
manufac tur
K en
1 \/
s ence</w>
k at
nu ts</w>
sal ad</w>
b erry</w>
gramma tical</w>
C u
ta to</w>
bi ll</w>
Fuku oka</w>
carto on</w>
. co
jo kes</w>
li ce</w>
journ al
requi re
reci pe</w>
Star bucks</w>
mi so</w>
k ne
ok o</w>
le vels</w>
cop y</w>
note book</w>
j a
A v
W om
ab e</w>
== </w>
do ors</w>
particip ated</w>
Bi g</w>
contr ary</w>
Califor nia</w>
th i
inde ed</w>
spr ings</w>
j azz</w>
coun ter
pas sen
imagin ed</w>
S anta</w>
le y
gh ten
t reas
destin ation</w>
p ap
att ack</w>
E C
se tt
compreh en
w er</w>
p al</w>
tri al</w>
tal ent</w>
mi gr
sing ers</w>
To hoku</w>
200 3</w>
v ice</w>
consider ation</w>
rap idly</w>
mon it
co stu
an nu
A T</w>
coun table</w>
young est</w>
clin ic</w>
*- *-
de ad
ri c</w>
mini ster</w>
C oun
communic ating</w>
un happy</w>
eri ous</w>
Every day</w>
stic ks</w>
cla use</w>
H mm</w>
lear nt</w>
O therwise</w>
z er
b on</w>
de te
ru b
imag es</w>
bo dies</w>
Go ing</w>
LO L</w>
P ho
fac ed</w>
Mac </w>
F un
vi d</w>
du mp
sk i</w>
run s</w>
rec ep
S ounds</w>
No body</w>
stra w
reg ard</w>
occur </w>
sel dom</w>
le g</w>
to y</w>
st ence</w>
pop ul
lar ger</w>
ar m
R ed</w>
sh u
we al
sol di
Me an
appro ach</w>
yo ga</w>
po tato</w>
N ar
t su
so on
al le
ti re</w>
1 000</w>
re pair</w>
po tat
BB Q</w>
per spec
kore an</w>
c m</w>
in se
P ower</w>
H oll
gre ater</w>
di stri
E ner
Col le
ki mono</w>
R u
mo thers</w>
V E</w>
ab sor
coun try
N E
ag ers</w>
pl ate</w>
text books</w>
assi stant</w>
Techno logy</w>
ac le</w>
B ook</w>
ge ous</w>
3 1</w>
t ower</w>
L ater</w>
No .
qu ick</w>
3 5</w>
am en</w>
su ici
me ta</w>
gro cer
Edu cation</w>
a ti
P ol
R ob
mi stry</w>
regar ds</w>
M u
ex pl
deli ver
bri dge</w>
prepar ation</w>
shir ts</w>
lang-8 .com\/
p an</w>
s na
sa ved</w>
3 00</w>
bl ack
anno yed</w>
techn ically</w>
Bus iness</w>
wor rying</w>
visi tors</w>
descri bed</w>
dev ice</w>
con jun
he\/ she</w>
p uni
pro ce
wel fare</w>
2 -
ill ness</w>
pass age</w>
estab lished</w>
schoo l
Wh ite</w>
i al</w>
es says</w>
festi vals</w>
R om
E ve</w>
ap art</w>
E conom
person ally</w>
ga thered</w>
phenomen on</w>
S T
ab sent</w>
~~ ~</w>
val ues</w>
aga wa</w>
e m
H y
A ir
ali ties</w>
ta il</w>
con trac
fort une</w>
thank ful</w>
you th</w>
6 5</w>
dre ssed</w>
depre ssion</w>
idi om
lou dly</w>
Japane se-
gh ted</w>
cri tical</w>
cat eg
• </w>
i sin
emer gency</w>
fa i
over time</w>
influ enced</w>
Stud ents</w>
succe e
sha ped</w>
cler k</w>
mass age</w>
-in- law</w>
O K
ali st</w>
pu b</w>
in ts</w>
continu es</w>
well- known</w>
Mexic o</w>
c king</w>
Se a</w>
fac tor</w>
Ar ab
hand some</w>
down town</w>
a. m.</w>
Introduc tion</w>
D ar
du ty</w>
col lo
ti ring</w>
dru gs</w>
bre e
fur nit
6 .
Jap an
ro bo
bro thers</w>
con sci
hosp it
ma d</w>
pu sh</w>
pro jects</w>
const antly</w>
c o</w>
tr end</w>
par ently</w>
Pre fecture</w>
cowor kers</w>
motor cycle</w>
shoul der</w>
Sen dai</w>
kil ome
p ace</w>
inst ant</w>
sex u
. s
s .</w>
emo tional</w>
A G
t in
or d</w>
n on
inter n
es tic</w>
lo ck</w>
un ic
gr ass</w>
maj ority</w>
bad ly</w>
C P
far m</w>
________ ________
four th</w>
H un
Li st
refre shed</w>
char set
radio active</w>
resu me</w>
ley ball</w>
t one</w>
hop ed</w>
strugg ling</w>
dep end</w>
k k
D ev
lo g</w>
re sted</w>
A Y</w>
Per son
err or</w>
co ck
red undant</w>
in te
ag i</w>
ment ally</w>
Su shi</w>
wi sd
se ats</w>
gent le</w>
g /
W il
sta tions</w>
m ap</w>
a se</w>
Ener gy</w>
on ing</w>
B ack</w>
mi ly</w>
ri sing</w>
ac es</w>
un cle</w>
Sha ding</w>
argu ment</w>
al arm</w>
Lit tle</w>
mathema tics</w>
f arewell</w>
S al
H K</w>
C Ds</w>
m in</w>
T om</w>
A sa
ter r
ang er</w>
pre mi
ea st</w>
attrac ted</w>
f alls</w>
Sci ence</w>
neighb or</w>
transl ating</w>
on ents</w>
ari an</w>
mus cle</w>
A L</w>
M use
expen ses</w>
trou ble
dis appeared</w>
t ary</w>
x x
pe di
pl ying</w>
po ses</w>
S am
sur face</w>
dang er</w>
hop ing</w>
8 0
s wa
re stri
smil ed</w>
M an</w>
ent ing</w>
x D</w>
bar ely</w>
wi ll
g ata</w>
a wake</w>
Ear thqu
vi sa</w>
en vy</w>
determin ed</w>
ni ghts</w>
disc ount</w>
Sh inj
possi bly</w>
sion ally</w>
C O
de ar</w>
n ic</w>
Re ally</w>
ju mp</w>
pron oun</w>
se cu
stitu tion</w>
K araoke</w>
Cur r
D u
v ow
de my</w>
y ..</w>
sa v
un clear</w>
b alls</w>
furnit ure</w>
wisd om</w>
re pa
any time</w>
E S</w>
ak a</w>
L ight</w>
govern ments</w>
divi ded</w>
reduc ed</w>
descri bing</w>
tour nament</w>
S ta
a id</w>
use less</w>
sc ar
view ed</w>
benef icial</w>
mo vement</w>
proces ses</w>
li d</w>
er or</w>
M il
chec k
Re gar
cli ent</w>
reac tion</w>
ad mini
☆ </w>
An i
min ds</w>
inde x
P al
ent ure</w>
pri me</w>
gener ations</w>
di o</w>
11 th</w>
chocol ates</w>
lu x
aspe ct</w>
advertise ment</w>
rout ine</w>
S H
kin g
fe ature</w>
di strict</w>
capitali ze</w>
cou ples</w>
li </w>
ma ss</w>
examin ations</w>
liter ally</w>
For mat
pu zz
characteris tics</w>
fe wer</w>
v ey</w>
er no
gi es</w>
f its</w>
kin dly</w>
sun g</w>
contr act</w>
hang ing</w>
You tube</w>
o be
d ying</w>
ti ps</w>
g ap</w>
fic ally</w>
20 11
thous ands</w>
S ou
on y</w>
ti e</w>
b orrow</w>
.com \/</w>
Win d
sele ct</w>
up load</w>
pregn ant</w>
ag ency</w>
Singap ore
meas ures</w>
scor es</w>
col orful</w>
Bir thday</w>
ar ts</w>
pa sta</w>
cooki es</w>
symbo l</w>
\/\/ lang-8.com\/
ci l</w>
concer ns</w>
si sters</w>
touri st</w>
2 2
P or
H ot</w>
ap s</w>
J our
respe c
tter y</w>
, 000
u tili
erno by
C i
ent ering</w>
progra mming</w>
om y</w>
qu es</w>
co de</w>
bu </w>
no tes</w>
har m
respon d</w>
f on
M at
spe ll</w>
tu tor</w>
quo te</w>
nick name</w>
entertain ment</w>
8 .
f -8</w>
de fini
spo ts</w>
poli tici
ign ore</w>
q tl
Muse um</w>
es \/
ser ves</w>
ser ving</w>
effici ently</w>
ful l
dev ices</w>
rab bit</w>
ser y</w>
re moved</w>
sand wi
ut f-8</w>
C N
sil ent</w>
imagin ation</w>
surr ounded</w>
crea tive</w>
wide ly</w>
R y
cour t</w>
sen ding</w>
day time</w>
B lack</w>
clou ds</w>
ye ah</w>
snow boarding</w>
P S
lea ds</w>
qu e
hom es</w>
23 6</w>
she et</w>
Dra gon</w>
apologi ze</w>
anal ysis</w>
E d
5 .
man ner</w>
organi z
resi dents</w>
M atsu
gar bage</w>
offic er</w>
Luc kily</w>
McDon ald</w>
cine ma</w>
Curr ently</w>
u ll</w>
Re member</w>
ad ditional</w>
celebr ated</w>
r ental</w>
T en
mp s</w>
tr op
ev ol
and a</w>
ak o</w>
nu tri
brea th</w>
pa ste</w>
foc used</w>
enti rely</w>
acqu ire</w>
conv inc
p unc
myst erious</w>
potat oes</w>
I L
pe ts</w>
it age</w>
sh u</w>
expre ssed</w>
vege table</w>
c ross</w>
ali zation</w>
or ange</w>
sh aring</w>
scienti sts</w>
Star ting</w>
Mal ay
regar dless</w>
I R
ha ted</w>
de mon
Ma ke</w>
organi zed</w>
empha sis</w>
dialec t</w>
actre ss</w>
distingui sh</w>
Q Format
QFormat =</w>
h oo
To o</w>
st ates</w>
vir us</w>
r ural</w>
.s g/
ca sh</w>
ti ous</w>
ec u
tri ps</w>
continu ing</w>
mus cles</w>
law s</w>
dol ls</w>
recover ed</w>
bas is</w>
temp les</w>
pla in</w>
si gned</w>
purcha se</w>
o l</w>
th ri
s ac
C ap
3 \/
k no
youtu be</w>
di o
un expected</w>
desi gner</w>
M andarin</w>
p -
A D
V er
de fe
su peri
ari um</w>
scri pt</w>
Ar t</w>
stro ke</w>
che erful</w>
collo qui
L u
★ </w>
7 th</w>
j am</w>
d ated</w>
regi ster</w>
pro fit</w>
cent ral</w>
vol leyball</w>
su sp
au </w>
Any ways</w>
doc tors</w>
equ al</w>
rhy th
on a</w>
an ic</w>
cal end
pas sport</w>
land sc
ke ys</w>
rela tive</w>
m ical</w>
So on</w>
Gre en</w>
Stud y</w>
e vil</w>
L ooking</w>
o ven</w>
gradu ating</w>
sugg ests</w>
c ore</w>
pa int
neighb ors</w>
arrang ed</w>
cu isin
S an
to ys</w>
ho st
gu est</w>
blo g
ra tion</w>
recogni zed</w>
appli cations</w>
H op
op ti
M om</w>
de ss
off ers</w>
S T</w>
th ere
Some day</w>
hi s\/
success fully</w>
m ouse</w>
So cial</w>
marke ting</w>
at tract</w>
th an
co very</w>
gu il
li ons</w>
li c</w>
stri c
artic le
Ch erry</w>
l ength</w>
assign ments</w>
bran ch</w>
xi mately</w>
country side</w>
tra de</w>
shi ft</w>
S ak
blo gs</w>
fle xi
necess arily</w>
New s</w>
rid icul
d .
8 3</w>
Th ings</w>
in ner</w>
stre ss
col ored</w>
bil lion</w>
on omi
batter y</w>
l er
ro se</w>
fav or</w>
progra m
Su b
bur n</w>
bili ties</w>
pe dia</w>
T er
p ure</w>
r at
D oc
ser t</w>
cu tting</w>
win dy</w>
cre ating</w>
inv ite</w>
Wor k</w>
ob viously</w>
Exa mple</w>
suici de</w>
| </w>
W el
ar i</w>
fa ir
b other</w>
j u</w>
sch e
t ac
Bri tain</w>
challeng es</w>
me etings</w>
ch e</w>
for th</w>
i ses</w>
M ari
ba ked</w>
grand parents</w>
age ing</w>
maj oring</w>
rema ins</w>
de sper
Ama zon</w>
div or
J i
v s</w>
ti ally</w>
j us
tt es</w>
sk ating</w>
bra tion</w>
mir ror</w>
instru ments</w>
Mini ster</w>
nar row</w>
ho o</w>
ma ma</w>
Mo vi
fic tion</w>
ough ly</w>
poll ution</w>
rob ot</w>
discri mination</w>
wa ves</w>
N ight</w>
bre vi
indic ates</w>
9 0
p he
le v
sha me</w>
Ti mes</w>
multi ple</w>
S F
l en
ho le</w>
consi st
on al</w>
r ented</w>
separ ated</w>
bo xes</w>
strate gy</w>
Stre et</w>
* I</w>
C la
t ent</w>
200 2</w>
re am</w>
jec tives</w>
sti mul
trans fer
gol den</w>
h o</w>
M as
su sta
fl our</w>
sub si
t ag
es sion</w>
J ack
hur ts</w>
avo i
ag ana</w>
docu ment</w>
destro yed</w>
hi ll</w>
colle ct</w>
mo ther
ama zed</w>
B oo
he art
volu me</w>
n .
g ation</w>
be cu
ab and
mat ure</w>
ob tain</w>
bas ket</w>
z oo</w>
short age</w>
Heal th</w>
al ed</w>
ch y</w>
Jo b</w>
p. m</w>
e- mails</w>
Holi day</w>
annu al</w>
Ch ernoby
E a
at to</w>
tu re
20 th</w>
For ei
R amen</w>
Dev el
Earthqu ake</w>
T ou
pl u
in gu
in fec
coo led</w>
tw o-
Gi ve</w>
musici ans</w>
cy cling</w>
pack age</w>
ab brevi
6 th</w>
pl at
disadvant ages</w>
zh ou</w>
P en
c ing</w>
w n</w>
hi de</w>
tu i
S app
gen i
your s</w>
phys ics</w>
ac u
C ul
fun ding</w>
\/\/ \/\/
g un
challeng ing</w>
deca des</w>
E do</w>
ru sh</w>
mb ling</w>
canc eled</w>
O ver</w>
gu ar
expre ssing</w>
ep ing</w>
pronoun ced</w>
dial o
Olymp ics</w>
name se</w>
Ad ditionally</w>
me lo
uc lear
con s
A ki
h ere
the at
ru p
gre eting</w>
idi om</w>
Tor onto</w>
ambo o</w>
J a
hu man
s light</w>
comp li
tou ching</w>
ro lled</w>
arr ange</w>
Sy ste
Sur pri
acqua int
refriger ator</w>
jec ted</w>
coo ler</w>
so ba</w>
dom estic</w>
Sapp oro</w>
O h
An y</w>
ma ker</w>
air s</w>
tis tics</w>
oper ating</w>
exi sts</w>
a. m</w>
han ded</w>
k illing</w>
T _
fe es</w>
choo sing</w>
recor ding</w>
Hon estly</w>
po cket</w>
exi stence</w>
I D
per si
r op
di ans</w>
g un</w>
C enter</w>
succee ded</w>
trouble some</w>
Devel op
3 3
hun dre
achi eved</w>
cowor ker</w>
inst alled</w>
a o</w>
ch ers</w>
Kan sai</w>
paint ings</w>
appro ximately</w>
I G
Be au
nu ll</w>
con clud
intern ship</w>
K ar
g ning</w>
wi ves</w>
safe ly</w>
~~~~~~~~ ~~~~~~~~
N ara</w>
++ ++
S C
ele v
tri c
ok u</w>
s oooo
adverti sing</w>
quar re
distri bu
Colle ge</w>
his\/ her</w>
en s
ti p</w>
ten ds</w>
ans en</w>
graph ic</w>
cla i
bit ter</w>
cla im</w>
Correc t</w>
descri bes</w>
sk ir
Ex c
le an
vo ices</w>
p acked</w>
ori gin</w>
Braz il</w>
where as</w>
g ent</w>
di ty</w>
ous ness</w>
wor ries</w>
S tation</w>
Pri me</w>
or ders</w>
emo tion</w>
BB C</w>
strugg le</w>
tex ts</w>
Bhu tan</w>
Chernoby l</w>
al y</w>
sc o</w>
p ort
po sts</w>
supp er</w>
com mas</w>
jo b
present ed</w>
mi d-
back gr
thre e-
fall en</w>
fir m</w>
strang ers</w>
instru ment</w>
4 .
per su
gr an
dis gu
ve ments</w>
e m</w>
jump ed</w>
che mistry</w>
ag gre
e ments</w>
min ton</w>
Ok ay</w>
musici an</w>
Shinj uku</w>
pro ve</w>
a qu
ir ation</w>
a war
as on</w>
deli very</w>
ob lig
adm ire</w>
bri lli
f ed</w>
c ure</w>
har v
G over
wh o
promo te</w>
toma to</w>
architec ture</w>
perspec tive</w>
B ur
g ment</w>
t ons</w>
su its</w>
win s</w>
nu mer
draw n</w>
sen i
Pre sident</w>
qu anti
re placed</w>
dro gen</w>
patter n</w>
str op
st ated</w>
tom s</w>
ick ness</w>
eri al</w>
bu ya</w>
lo vers</w>
jac ket</w>
philosop hy</w>
th or
M om
rea ds</w>
pain ted</w>
increas es</w>
to day
expec ting</w>
nur se</w>
ol dest</w>
gues sing</w>
consu mption</w>
S ec
custom ed</w>
descri ption</w>
schedul ed</w>
po d</w>
cli ents</w>
lec tures</w>
grand ma</w>
com posed</w>
phys ically</w>
un believ
confir m</w>
7 .
I m</w>
si </w>
T it
pro v
par ks</w>
L A</w>
op tional</w>
bl ed</w>
f ossi
I ON</w>
re servation</w>
gor geous</w>
O ld</w>
ur o</w>
fe ed</w>
H ea
up date</w>
Chi ba</w>
intel ligent</w>
weap ons</w>
wiki pedi
ac customed</w>
H I</w>
list en
ther ap
La stly</w>
sequ ently</w>
prin ted</w>
hambur ger</w>
di ag
rela tions</w>
occa sionally</w>
stress ful</w>
T ar
st on</w>
off ici
ici ency</w>
pro verb</w>
a de
b attle</w>
calend ar</w>
onomi yaki</w>
jo ining</w>
Wi ki
re sort</w>
good -
rec ession</w>
P C
E l
en .
wan ting</w>
can dy</w>
T ower</w>
competi tive</w>
bla me</w>
ound ation</w>
techni que</w>
dist ur
automa tically</w>
sur vey</w>
ha y</w>
re sc
ei gh
200 1</w>
mode ls</w>
camp ai
Fa ther</w>
enh ance</w>
educ ated</w>
Fa mily</w>
m ly</w>
vi li
d ried</w>
w are</w>
supp orted</w>
myst ery</w>
Ev entually</w>
up loaded</w>
terna tives</w>
ex ecu
Viet namese</w>
lear ner</w>
b unch</w>
cle ver</w>
org \/
Te ll</w>
15 th</w>
squ are</w>
accur ate</w>
comb ination</w>
ridicul ous</w>
sc ow</w>
J ack</w>
co ach</w>
p ill
T emp
bl ind</w>
co sme
Ei ther</w>
Christi an</w>
be l</w>
G et</w>
op tions</w>
of -
v it
cha p
Th ank
particip ants</w>
dom in
I r
S now</w>
tur ed</w>
To yo
recei ving</w>
clu bs</w>
dru g</w>
deci sions</w>
fle w</w>
sign s</w>
fresh man</w>
electri cal</w>
comfor t</w>
le i
fac ts</w>
plan et</w>
appe ti
colle ction</w>
Fri end</w>
provi ding</w>
audi o</w>
ap ples</w>
gri lled</w>
4 5
d .</w>
M el
sh ining</w>
Re search</w>
head ing</w>
repe ti
K at
un a</w>
g ant</w>
un like</w>
sc rea
S peci
gen der</w>
u pper</w>
chan nel</w>
paragrap h</w>
T_ T</w>
wikipedi a.
G ood
pati ence</w>
kin da</w>
Mic ro
Le e</w>
Wat ching</w>
mal es</w>
Tri p</w>
evi dence</w>
N HK</w>
O ver
G lo
ma y
val ent</w>
introduc ing</w>
spiri ts</w>
insp ired</w>
Ori gin
popul arity</w>
Mean while</w>
ink ansen</w>
Mo scow</w>
f at
ab or
' The</w>
Ch ang
4 8</w>
tom at
reali sed</w>
studi o</w>
er ship</w>
uc k
V ER
re solution</w>
R ock</w>
nor thern</w>
idiom s</w>
Wind ows</w>
th -
F re
butt ons</w>
gues sed</w>
deliver ed</w>
b amboo</w>
p our
r and
ty -
uni form</w>
Me dic
near est</w>
fif th</w>
advi se</w>
carto ons</w>
Gir l</w>
ur ban</w>
Buddhi st</w>
ancest ors</w>
con secu
Shi buya</w>
9 .
t an
sh a</w>
ro of</w>
. It</w>
Col orful</w>
Ke ep</w>
muse ums</w>
irrit ated</w>
colloqui al</w>
cons cious</w>
symp toms</w>
C al
at ar</w>
t ful</w>
see k</w>
O S</w>
d ating</w>
ce ment</w>
Pro fe
E gy
ON E</w>
zu oka</w>
shel f</w>
Am ong</w>
u -
p on
C ri
con tain</w>
stre am</w>
si ble</w>
sel fish</w>
achi </w>
happ ier</w>
design s</w>
ph arm
B al
be ll</w>
de mo
O ff
rec all</w>
W est</w>
hou sing</w>
part ners</w>
tion ary</w>
cele bri
dis cover</w>
Re actor</w>
ra ising</w>
meaning ful</w>
li p
b un
f oun
ele ss</w>
We b</w>
spe ct</w>
ali sm</w>
hum or</w>
bra ve</w>
inter views</w>
pul led</w>
decreas ing</w>
carri er</w>
e ing</w>
cha in</w>
class ic</w>
tw el
good bye</w>
hear ts</w>
compar ison</w>
treas ure</w>
fon t-
\/ I</w>
sp a</w>
b ars</w>
ref used</w>
ak ana</w>
innov ations</w>
teen agers</w>
cuisin e</w>
Jack son</w>
st ol
ani a</w>
for give</w>
str eng
M Y</w>
continu ous</w>
house work</w>
p. m.</w>
fro zen</w>
I F
be have</w>
de ed</w>
na tions</w>
g gy</w>
holi c</w>
room mates</w>
a di
shou ted</w>
dor m</w>
Hu man</w>
en counter</w>
il legal</w>
re lev
hundre ds</w>
5 5
a mon
al right</w>
week days</w>
sha d
fil es</w>
clear er</w>
regar ded</w>
car rying</w>
instruc tor</w>
Mini stry</w>
photo graph</w>
journal s\/
inse cts</w>
techni ques</w>
ou ts</w>
k ni
enc ing</w>
re mind</w>
C entr
inv ented</w>
ty ping</w>
vehic les</w>
met al</w>
attemp t</w>
Pu blic</w>
Wom en</w>
i i
M A
D en
l ers</w>
fi gu
da i
summ ary</w>
w s</w>
wor l
se ts</w>
gener ate</w>
sn owed</w>
10 th</w>
o v
é </w>
M s</w>
ac com
de le
stor m</w>
a side</w>
col lap
sta dium</w>
religi ous</w>
belon gs</w>
key board</w>
supp orting</w>
ar rested</w>
Gover n
d ..</w>
mu sh
min ated</w>
N ature</w>
brea king</w>
wa sted</w>
Com pared</w>
bri de</w>
super vi
imp lied</w>
dri vers</w>
p o</w>
ra il
differ ently</w>
ge tic</w>
reli able</w>
T- shirt</w>
y wood</w>
Miy az
harm ful</w>
che mical</w>
om it</w>
ac ity</w>
ste ak</w>
Olymp ic</w>
Pol and</w>
sexu al</w>
he he</w>
co al</w>
sh ment</w>
l ings</w>
Se ver
in sul
man ners</w>
ob jects</w>
fin gers</w>
empha si
deb ate</w>
yu mmy</w>
di ver
bu t
fun d</w>
b ited</w>
20 10
AN D</w>
disa sters</w>
un familiar</w>
In formation</w>
L in
k en
9 th</w>
P ut</w>
y al</w>
. The</w>
us a</w>
s par
in ev
ac cu
ac her</w>
associ ated</w>
hor ror</w>
advertise ments</w>
grocer y</w>
ne phe
Centr al</w>
R el
bus es</w>
ex posed</w>
pow der</w>
f ond</w>
meas ure</w>
kilome ters</w>
0 .
B ro
K it
do l</w>
ow ned</w>
pas ses</w>
bur ned</w>
invest ment</w>
excep tion</w>
fun eral</w>
Hop efully</w>
acti ce</w>
Y uk
qu ake</w>
sn ack</w>
her o
conduc ted</w>
nur sery</w>
ex ag
H ome</w>
clo th</w>
on ship</w>
graph s</w>
So ci
mis tic</w>
schol ar
soon er</w>
i ed</w>
sh ut</w>
mi -
gr as
si ans</w>
techno logical</w>
conv ey</w>
Ge or
OM G</w>
sop hi
passen gers</w>
transfer red</w>
n uclear
bad minton</w>
con s</w>
F ood</w>
N ever</w>
Com pu
gr atu
ma sk</w>
r y
C er
C oo
the \/
B ang
po ver
ter n
a ked</w>
cer ely</w>
Ma king</w>
9 9</w>
rela tion</w>
ho tter</w>
s lic
ak ami</w>
sub mit</w>
in vention</w>
ac ha
di </w>
mor e
pic k
app ing</w>
coo l
swi tch</w>
s ounding</w>
al pha
W he
C ho
re pu
li ght
ban ned</w>
bott les</w>
advi sed</w>
bree ze</w>
Shi zuoka</w>
B er
pu ll</w>
cru el</w>
dy na
ne gle
pur poses</w>
brilli ant</w>
Wiki pedia</w>
: 0
sp a
S imp
boo ts</w>
cl ari
et c
ob st
la sted</w>
Hi gh
pre position</w>
ank ly</w>
exp and</w>
ch ina</w>
commu te</w>
expec tations</w>
ga thering</w>
ten dency</w>
B O
ru pt</w>
perform ances</w>
ay ama</w>
sa dness</w>
comprehen sion</w>
N Y
5 -
sh ri
est ay</w>
sti ff</w>
anc ing</w>
chil dish</w>
quo tation</w>
m \/
me ss</w>
h ire</w>
Sa ying</w>
profess ors</w>
lig ence</w>
ob jective</w>
illu str
sa mur
u gly</w>
consecu tive</w>
U T
1 ,
lo ving</w>
str act</w>
tow ns</w>
t ched</w>
beli ef</w>
Ki m</w>
ci vili
U p</w>
po d
pro hi
re gu
ea th</w>
poin ting</w>
.com </w>
e dge</w>
ag ement</w>
doll ar</w>
promo tion</w>
indic ate</w>
sou thern</w>
Sever al</w>
pover ty</w>
ch op
fa ke</w>
h ence</w>
19 7
si vely</w>
i ku</w>
a muse
el dest</w>
ene my</w>
belon ged</w>
G ar
ar y
re l
si de
mm a</w>
ic a</w>
sol ving</w>
at les</w>
blo ck</w>
reli ef</w>
pre tend</w>
b acks</w>
episo des</w>
figu res</w>
S mi
M ary</w>
tal k
gr and</w>
fu sion</w>
B C</w>
A R</w>
a shi</w>
Wor king</w>
z zy</w>
ath y</w>
psycho logical</w>
U. S.</w>
world wide</w>
im migr
X -
b o</w>
H ou
C el
min ded</w>
8 1</w>
cu ps</w>
tu ation</w>
expen di
fe ed
k ai</w>
pre viously</w>
disp layed</w>
ri sks</w>
bloom ing</w>
Pr actice</w>
gre en
uni on</w>
fac tion</w>
chil ly</w>
ques tion
tra ined</w>
h ir
infor m</w>
sa fer</w>
Fr anci
pa yment</w>
transl ator</w>
de aling</w>
to ler
stol en</w>
S le
tra ge
sil ver</w>
W rite</w>
Bas ically</w>
H a</w>
ha m</w>
M ag
S il
ge o
ten ses</w>
wh eat</w>
ali zed</w>
Sh r
Ne ed
ne sses</w>
assu med</w>
pr int</w>
List ening</w>
Malay sia</w>
. pdf</w>
Mur akami</w>
o y
m are</w>
c ough</w>
p \/
le f
ne ces
mat ches</w>
volunte ers</w>
bu tter
certi fic
fossi l</w>
G O
3 9</w>
ul ti
har sh</w>
shi mi</w>
Ri ver</w>
house hold</w>
ga wa</w>
cru cial</w>
ap plying</w>
fi sh
4 00</w>
head ed</w>
compla ining</w>
NO T</w>
appro aching</w>
clo sely</w>
to fu</w>
rhyth m</w>
hy drogen</w>
ener getic</w>
/ </w>
W ar
st al
D r</w>
8 \/
un i</w>
N ic
sh in
exc it
Su per
ma xi
bar a</w>
climb ed</w>
Ra iny</w>
YO U</w>
cooper ation</w>
enthusi as
CN N</w>
the -
enc e
re ss</w>
N O</w>
glo b
ha bit
m ang
concep ts</w>
But ler</w>
r r
D or
8 th</w>
gra tion</w>
v ague</w>
w rest
ambi gu
broadca sting</w>
dis covery</w>
cele bration</w>
8 -
li a</w>
St ory</w>
ab o
Hi story</w>
lab or</w>
gra titude</w>
Indone sia</w>
p a</w>
ge ment</w>
8 00</w>
cal cul
le ague</w>
et ti</w>
bom b</w>
souven ir</w>
ne st</w>
H as</w>
pu ts</w>
ha ve
main ten
ag u
exi sting</w>
la dies</w>
t v</w>
pe pper</w>
Bl ue</w>
crimin al</w>
hospit als</w>
Person ally</w>
speci fically</w>
appeti te</w>
exag ger
S P
s an
pl ot</w>
for ge
f it
c and
ru shed</w>
b arri
sil ence</w>
tal ented</w>
Ta king</w>
poe ms</w>
dent al</w>
hot els</w>
acc ents</w>
sp lit</w>
Engine ering</w>
conjun ction</w>
relev ant</w>
Holl ywood</w>
a in</w>
mor al</w>
H ear
n ings</w>
th is
rec ru
down load</w>
strang er</w>
refle ct</w>
Th inking</w>
dead line</w>
soldi ers</w>
Surpri singly</w>
amuse ment</w>
m ou
wh el
wri t
ad just</w>
Ch ic
e ties</w>
ad verb</w>
affec ts</w>
mel on</w>
MS N</w>
defini tion</w>
B L
k ar
b one</w>
vide o
concer ning</w>
in her
emplo yed</w>
compla ined</w>
shoo ting</w>
ghten ed</w>
pap er
sc rat
S O
ca using</w>
bl u
ab out
re ven
r ow
re luc
diction aries</w>
tran si
ing ton</w>
terr ori
su ke</w>
ti ght</w>
B ad</w>
er ever</w>
ph p</w>
s la
wri ters</w>
ac ces
St art</w>
inc ess</w>
sun set</w>
j eal
oni on</w>
har dest</w>
smoo th</w>
Ge tting</w>
fortun ate</w>
Franci sco</w>
er o
mi d</w>
pl us</w>
in fra
concent r
Comm unic
concent ration</w>
sophi stic
k -
Th ir
ud on</w>
M ad
an i</w>
L Y</w>
ly -
bur ning</w>
logi st</w>
inten tion</w>
w alls</w>
ter nal</w>
go ti
fi es</w>
win ner</w>
chi ps</w>
sh ow
ama z
UR L</w>
weal th</w>
bar becu
tui tion</w>
i .
oun ts</w>
om i</w>
mo de</w>
cor n</w>
gra ve</w>
war m
hy po
attrac tions</w>
anxi ety</w>
e. g</w>
chan ne
adap t</w>
imple mented</w>
superi or</w>
Miyaz aki</w>
hom estay</w>
A i
A Y
X i
con fe
mb led</w>
hol ds</w>
att acked</w>
J AP
da wn</w>
Develop ment</w>
Te acher</w>
l a</w>
h h</w>
A ca
tt able</w>
in ted</w>
ll er</w>
dis order</w>
hon ey</w>
dre sses</w>
mon thly</w>
sme lls</w>
shoo t</w>
reali stic</w>
al ot</w>
K ei
eng ine</w>
bri ef
er ature</w>
touri sm</w>
incredi ble</w>
car bon</w>
tomat oes</w>
Need less</w>
B ab
sel ls</w>
ak u</w>
25 th</w>
glo omy</w>
ade qu
Be atles</w>
C old</w>
i phone</w>
Pro gra
crow d</w>
n i</w>
e el</w>
mer ely</w>
i ze</w>
ch eri
him \/
f illing</w>
Gen etic</w>
convinc ed</w>
mainten ance</w>
over whel
sophistic ated</w>
b ou
co t
In ci
prote ction</w>
deta iled</w>
A lice</w>
twel ve</w>
we ars</w>
dra ft</w>
har m</w>
g an</w>
re mo
po sting</w>
cor respon
sea food</w>
after wards</w>
decor ated</w>
understand able</w>
resear chers</w>
O ut</w>
ir on</w>
in \/
min or</w>
en der</w>
is a</w>
mar k
infor med</w>
conven tional</w>
K yu
poll en</w>
rema ining</w>
un countable</w>
N an
2 \/
d ary</w>
3 3</w>
re turning</w>
bed ded</w>
require ments</w>
vow el</w>
elev ator</w>
satis faction</w>
tra sh</w>
ell a</w>
el ing</w>
ate dly</w>
repe ated</w>
14 th</w>
achiev ement</w>
dess ert</w>
plat form</w>
Con sequently</w>
A I
f li
wor n</w>
pl en
. This</w>
st ones</w>
e ats</w>
danc ed</w>
dis appear</w>
hair cut</w>
gratu lations</w>
s ar
el ly</w>
pre -
fa ti
ma tions</w>
bl an
Li ving</w>
on ics</w>
depen dence</w>
sof a</w>
shr ines</w>
re presents</w>
L ady</w>
samur ai</w>
gh etti</w>
p il
de dic
pi g</w>
O thers</w>
St ar</w>
ele ments</w>
gener ated</w>
ta ku</w>
proper ty</w>
guar an
In deed</w>
accom mo
P O
E E
℃ </w>
G in
un it</w>
ne u
5 \/
d ently</w>
ch est</w>
N et
gradu ates</w>
cra tic</w>
contro versi
Nag ano</w>
hea ven</w>
Elec tri
Air port</w>
p in
oun g</w>
he y</w>
f ought</w>
au l</w>
o x</w>
so ap</w>
Ne ther
assu ming</w>
viol ent</w>
cab bage</w>
N Z</w>
atom ic</w>
seni ors</w>
D .</w>
le st</w>
8 2</w>
pre ten
cap able</w>
tor ies</w>
occur s</w>
Ad v
ma ssive</w>
hh hh
Wel come</w>
ad jectives</w>
me ter</w>
ol ine</w>
beau ti
W ater</w>
de par
s ory</w>
foo t
defin ed</w>
De partment</w>
2 1st</w>
inno cent</w>
re served</w>
ad mission</w>
Gra du
surr ounding</w>
decreas ed</w>
l acking</w>
propo sed</w>
sav ings</w>
so aked</w>
f m</w>
c ant</w>
f ting</w>
a meric
per cent
smi les</w>
terri bly</w>
identi ty</w>
insi st</w>
rou te</w>
After wards</w>
politici ans</w>
landsc ape</w>
geni us</w>
unbeliev able</w>
ch r
A ir</w>
see ds</w>
sur f</w>
gr ows</w>
concer ts</w>
as aki</w>
mon key</w>
In stitute</w>
3 px</w>
vehic le</w>
Por tu
cigare ttes</w>
M O
W on
e ding</w>
A ge</w>
Al ways</w>
produc tive</w>
st ops</w>
deman ds</w>
adv enture</w>
A ri
wor th
sc ol
wri tes</w>
cra ft</w>
tra di
thou ght
speci fy</w>
ign ored</w>
aa aa
aci fic</w>
f ancy</w>
reve al</w>
monit or</w>
em bedded</w>
B T
A -
D ou
e able</w>
pu p
f fe
struc k</w>
qui e
continu ously</w>
cat ching</w>
li vely</w>
accoun ting</w>
hop es</w>
English- speaking</w>
fascin ating</w>
consci ously</w>
lo ttery</w>
z a
de al
F ree</w>
b ite</w>
pu mp
wi shed</w>
con cre
expla ining</w>
auth ors</w>
sub ordin
assi gned</w>
ban ana</w>
fashi onable</w>
embarras sing</w>
robo ts</w>
K y
2 1
U k
speci es</w>
ga mi</w>
20 12</w>
Har uki</w>
ES L</w>
fif teen</w>
ast oni
woo den</w>
Arab ic</w>
en. wikipedia.
R I
h in
G un
9 \/
p ud
hi king</w>
u ps</w>
co ast</w>
she ep</w>
so lid</w>
sac ri
fair ly</w>
Forei gn</w>
repu tation</w>
Shr ine</w>
/ 0
M .</w>
sh it</w>
V ol
si us</w>
comm and</w>
st oc
la sts</w>
Su gg
foo lish</w>
ref lec
contro lled</w>
expre sses</w>
f icial</w>
Nor mally</w>
empha size</w>
cal ories</w>
temper atures</w>
Jour nal</w>
ne goti
S E
6 \/
mb </w>
su pri
Un less</w>
fun c
defin ite</w>
p ond</w>
Mexic an</w>
br inging</w>
aff airs</w>
Toyo ta</w>
chop sticks</w>
M en</w>
re tired</w>
over all</w>
visi ble</w>
sha ke</w>
goo gle</w>
identi fy</w>
sec ure</w>
hon estly</w>
acci dentally</w>
Comp any</w>
occu p
charset =</w>
n on</w>
li ft</w>
bl ank</w>
practi se</w>
mi x
shoc king</w>
W hatever</w>
lin gu
un pleasant</w>
flexi ble</w>
numer ous</w>
C y
en or
\/ the</w>
po or
H ol
T A</w>
M ei
ro les</w>
a tic</w>
whe el</w>
assi stance</w>
cou ld
me dal</w>
sp aces</w>
kni fe</w>
U K
w ed</w>
es .
fin ance</w>
di ving</w>
sa mple</w>
b ak
h ori
un easy</w>
conversa tional</w>
high way</w>
Mi ss</w>
drea med</w>
ob serve</w>
me chan
deter mine</w>
De sign</w>
s ickness</w>
g ay</w>
ud es</w>
ang le</w>
f loo
N atur
Sh opping</w>
Na tive</w>
Pe ter</w>
wi t
in stitute</w>
melo dy</w>
Y oung</w>
x y
er ce</w>
g ad
comm it
c ope</w>
fun da
F C</w>
experi ments</w>
air -
Par ents</w>
oooo oooo
t ane
Mor ning</w>
Sel f-
wa s
D O</w>
K ama
discus sing</w>
AN G
co inci
tran sport</w>
agre ement</w>
contra dic
fashi oned</w>
fascin ated</w>
E- mail</w>
pic nic</w>
guil ty</w>
sta tistics</w>
tt on</w>
der i
ref use</w>
sun light</w>
hal f-
ta xes</w>
punc tuation</w>
v in
M er
on ent</w>
d ust</w>
do ll</w>
lea f</w>
Ch r
pu shed</w>
ing .
brea the</w>
no tic
12 th</w>
cro ssed</w>
o sity</w>
far mers</w>
Je sus</w>
NY C</w>
spa ghetti</w>
z er</w>
w ow</w>
ca fe
e co
S S</w>
au tom
6 6</w>
S un</w>
St ate</w>
run ny</w>
im it
Con si
reli eve</w>
hi dden</w>
e mails</w>
cre atures</w>
peop le
As soci
ab sence</w>
desi gning</w>
Sh inkansen</w>
cap acity</w>
ne y
fe a
wi d
tu b</w>
dis ci
pu b
Mo on</w>
oper ate</w>
M anga</w>
13 th</w>
shoul ders</w>
inv itation</w>
pur sue</w>
ev acu
er _
h an</w>
k ic
as u
W R</w>
F ili
ini ti
deli c
expla ins</w>
conf li
app lic
direc ted</w>
ly \/
mi ssions</w>
Th ink</w>
recep tion</w>
nephe w</w>
Chic ago</w>
y ard</w>
A bo
da tions</w>
ma tic</w>
win ning</w>
struc tures</w>
ol d-
cock ro
Pal ace</w>
s r
wor d
fu me</w>
ro ses</w>
ri dge</w>
denti al</w>
end ure</w>
C lu
dd le-
Kin dle</w>
micro wave</w>
feed back</w>
H al
S ure</w>
con ve
plan ted</w>
inv est</w>
char ming</w>
Fe b</w>
gent le
org\/ wiki
him\/ her</w>
' and</w>
gh ing</w>
ab i</w>
K ing
ment ation</w>
bu tter</w>
d ates</w>
compe te</w>
k awa</w>
XX X</w>
consequ ences</w>
A I</w>
c ic
mi es</w>
f ted</w>
pen sion</w>
D P</w>
V eg
ni ece</w>
k ok</w>
rap id</w>
aqu arium</w>
quanti ty</w>
campai gn</w>
Govern ment</w>
P aul</w>
4 -
st an
ag ent</w>
K ag
ag ri
ang e
a mat
Sh ir
M erry</w>
al oud</w>
gen e
hop efully</w>
ee ee
stand ards</w>
Se attle</w>
tiv eness</w>
Gir ls</w>
Ang el
repe atedly</w>
^ o
D I
m or</w>
E le
b our
bor der</w>
Pe ter
d at
extre me</w>
dru ms</w>
work force</w>
chap ter</w>
p on</w>
list s</w>
ac les</w>
the tic</w>
ed \/
D ut
hy dr
be fore
too th
li graphy</w>
patter ns</w>
Tal king</w>
prov ince</w>
equi valent</w>
Nether lands</w>
B en
al o
ch a</w>
thr owing</w>
r ates</w>
sal es
ac cess
produc ing</w>
t une</w>
Gr and
modi fy</w>
je ans</w>
humi dity</w>
Abo ve</w>
A A
or -
j in</w>
S ent
p our</w>
so y
b at
K im
sel f
clean er</w>
f ellow</w>
consu mers</w>
gho st</w>
costu me</w>
D ream</w>
ang zhou</w>
Micro soft</w>
alpha bet</w>
trage dy</w>
D O
H or
t to</w>
A le
r ings</w>
la z
exerci sing</w>
bri ef</w>
oni ons</w>
c ells</w>
dol ph
straw berry</w>
jeal ous</w>
barbecu e</w>
S cot
percent age</w>
・ </w>
pic king</w>
st ere
l ar</w>
recomm end
refer red</w>
explan ations</w>
kore a</w>
bel t</w>
night mare</w>
B E
n ut</w>
fr om
4 \/
min s</w>
s ke
s \/</w>
A D</w>
un lucky</w>
mis understood</w>
Ref erence</w>
Ga mes</w>
n om
P op
sh er</w>
R ice</w>
m ated</w>
ki lo
Lang 8</w>
L ake</w>
men d
na ils</w>
Sp orts</w>
Ca mer
P acific</w>
concre te</w>
e u
A V
en o</w>
' to</w>
C li
\/ w</w>
no -
sc ul
wri tting</w>
plan es</w>
M E</w>
ow ns</w>
por tra
chi ef</w>
drea ming</w>
bal con
camer as</w>
Ya hoo</w>
c ei
pri de</w>
H ome
ori ties</w>
Un like</w>
cent re</w>
pre ce
1 50</w>
scor ed</w>
proces sing</w>
Ga me</w>
enthusi astic</w>
accu mul
Dis ney
a e
we ed</w>
ex po
cul tiv
mom ents</w>
Me mor
xi de</w>
O ut
lead ers</w>
ber ries</w>
Ni i
vic tory</w>
reduc ing</w>
fant asy</w>
super markets</w>
Emp eror</w>
Sak ura</w>
dump lings</w>
Whe ther</w>
Man agement</w>
controversi al</w>
b b
B I
4 9
at o
C at
min ate</w>
5 00
O ct</w>
de vo
L O</w>
work shop</w>
viol in</w>
Budd ha</w>
accomp lish</w>
f oundation</w>
photo graphs</w>
Soci ety</w>
ab stract</w>
V ic
d are</w>
jo g</w>
r ay</w>
H ei
S of
mo ves</w>
m ani
war ning</w>
deli ver</w>
sha king</w>
mess y</w>
bur st</w>
spe lled</w>
ss or</w>
Ho tel</w>
sex y</w>
make up</w>
repa ired</w>
U C
l in</w>
en di
c ular</w>
ven tions</w>
ap h
sh op
Ar ound</w>
b by</w>
satis fy</w>
fu els</w>
non- native</w>
nur sing</w>
post p
Ca stle</w>
compar ing</w>
therap y</w>
Bo ston</w>
i dol</w>
excit ement</w>
Sugg estion</w>
Kama kura</w>
se es</w>
d ure</w>
mi ser
clo se
pu pp
N ak
over night</w>
poli ce
un ning</w>
st ate
O F</w>
foc using</w>
organi ze</w>
in convenient</w>
pra ised</w>
quo tes</w>
par ade</w>
bel ly</w>
gur t</w>
premi um</w>
consist ent</w>
infra structure</w>
Clu b</w>
Dut ch</w>
D ri
gu ard</w>
. You</w>
col our</w>
m ac
ab led</w>
fic ations</w>
oun d-
rac es</w>
sec tor</w>
de layed</w>
Bang kok</w>
B lo
to \/
si gh</w>
co in</w>
coun ting</w>
b loo
H ai
a wa
sty le
v ital</w>
re plac
19 th</w>
ski p</w>
t al</w>
Po lish</w>
in stitu
expec tation</w>
squ it
fif ty</w>
wor thy</w>
rain bow</w>
kne e</w>
mir acle</w>
strate gies</w>
dialo gue</w>
W W
v a</w>
mp 3</w>
op en
F av
ca u
t ack
k ick</w>
k ill
camp ing</w>
rema ined</w>
decl ine</w>
emplo yers</w>
exper ts</w>
.gov .sg/
Syste m</w>
announ cement</w>
wh erever</w>
E X
V en
ab le
' cause</w>
gre e
list ed</w>
po ster</w>
d ur
in put</w>
the ast</w>
sl u
fi shes</w>
cl oud</w>
day -
de a
yu an</w>
fig ured</w>
analy ze</w>
deli ghted</w>
stric tly</w>
Nii gata</w>
me -
er \/
v ul
6 8</w>
cri mes</w>
gar d
for ces</w>
so- called</w>
laun ched</w>
stuff ed</w>
disci pl
w o
N u
n -
I ch
f ool</w>
s kin
f rea
L unch</w>
. edu
ex changed</w>
off ering</w>
s qui
Sa it
ur ai</w>
over slept</w>
viol ence</w>
su mo</w>
Pic ture</w>
chest ra</w>
B UT</w>
kin iku</w>
Thir dly</w>
Inci dentally</w>
SC WR</w>
ev es</w>
3 2</w>
so il</w>
re se
snow y</w>
.co .jp\/
Ani me</w>
lei sure</w>
scholar ship</w>
mi ddle-
H D
I re
tu s</w>
R est
mm ed</w>
Un der</w>
com po
ga ining</w>
present ations</w>
comfort ably</w>
bi ology</w>
ful fill</w>
aka ya</w>
Compu ter</w>
di zzy</w>
enor mous</w>
confli ct</w>
: 5
ti ed</w>
D ep
E D</w>
b less</w>
bl owing</w>
he ater</w>
co ins</w>
S ky</w>
f ired</w>
De mo
cover s</w>
Yo ga</w>
peri ods</w>
hang over</w>
characteris tic</w>
Ty phoon</w>
Lat in</w>
her itage</w>
Aki ha
diag no
n. d.</w>
stom acha
fati gue</w>
U L
sh in</w>
bu b
bi kes</w>
c uc
ki ss</w>
ba ke</w>
wa sting</w>
re vol
hon or</w>
sk illed</w>
memori zing</w>
bow ling</w>
signific antly</w>
refre shing</w>
crimin als</w>
CP F</w>
champi onship</w>
balcon y</w>
3 6
fin ds</w>
all -
h u</w>
pi e</w>
medi ate</w>
lec tur
regi ons</w>
pra ise</w>
Tra vel</w>
pas sion
bo thered</w>
chor us</w>
gran ted</w>
strop he</w>
BT W</w>
ul a</w>
pro of</w>
O per
du ll</w>
bu si
sin gs</w>
ear ned</w>
sy ll
che e
gra ms</w>
t ching</w>
vers al</w>
================================ ========
shar p</w>
exper t</w>
re mark
quie tly</w>
an o
car ing</w>
clo sing</w>
fl ows</w>
bas s</w>
less ly</w>
off ices</w>
soc ks</w>
recor ds</w>
Ra in</w>
summ ari
un fair</w>
jump ing</w>
disp la
aller gy</w>
Miy agi</w>
pen cil</w>
sin cerely</w>
gas oline</w>
Ire land</w>
z akaya</w>
S t</w>
W ay</w>
sc ent</w>
C of
as u</w>
appreci ation</w>
mi xi</w>
Y ears</w>
ap parently</w>
Movi e</w>
aggre ssive</w>
trou bled</w>
ambigu ous</w>
Akiha bara</w>
L and</w>
p ir
tal e</w>
and \/
D ef
A S</w>
ki sh</w>
W ea
bur ger</w>
smo kers</w>
den y</w>
ent y-
Gra mmar</w>
2 4th</w>
- san</w>
terna tively</w>
adop ted</w>
harv est</w>
P P
di ss
re write</w>
bo il</w>
ici ous</w>
colle cted</w>
t ap</w>
G O</w>
ro lling</w>
bo iling</w>
gho sts</w>
l ord</w>
organiz ations</w>
lean ing</w>
s plen
7 \/
l ly</w>
mon o
e ver
Ma th</w>
sun day</w>
th under</w>
shoc ks</w>
K az
don ate</w>
con duct</w>
inst all</w>
pen alty</w>
en counter
swa m</w>
- cooled</w>
skir t</w>
th o
j o</w>
J an</w>
F oo
o sa
sc al</w>
gu ese</w>
fe atur
re less</w>
g room</w>
divi sion</w>
an ticip
acti vely</w>
out door</w>
30 th</w>
mis understanding</w>
ci vil</w>
Pho to
Da vid</w>
fai th</w>
Av atar</w>
expendi ture</w>
O p
wa king</w>
la id</w>
g age</w>
ex tra
6 4</w>
o tic</w>
Li ve</w>
p ac
Wor ds</w>
dar k
Bi ble</w>
U mm</w>
Ob on</w>
Tak o
occa sion</w>
rand om</w>
Off ice</w>
play er_
en i
gr ated</w>
mi les</w>
T E</w>
b ills</w>
tra in
Fin al</w>
perform ing</w>
simp li
ji ma</w>
ce iling</w>
commerci als</w>
broadca sted</w>
prefer red</w>
Trans lation</w>
Mr .</w>
represent ative</w>
person alities</w>
tre mend
feature= player_
T R
3 8
ti an</w>
s at
E ver</w>
v es
D ad</w>
il er</w>
t ate</w>
d ation</w>
H A</w>
t wee
R opp
a sted</w>
conf use</w>
loc ked</w>
cep t</w>
ong i</w>
Ka wa
is lands</w>
wait er</w>
it chy</w>
Nag asaki</w>
T V
sa y
col on</w>
g est
a tional</w>
tis tic</w>
fr ench</w>
Per fect</w>
simp ler</w>
refre sh</w>
Qu een</w>
uni forms</w>
insi sted</w>
produc tivity</w>
Cl ass</w>
en ables</w>
Nar ita</w>
enthusias m</w>
Sam urai</w>
g on
d am</w>
F our</w>
ste am</w>
par tly</w>
knowle d
se lec
b ank
pre ssed</w>
trans lations</w>
Da ys</w>
teen ager</w>
busines ses</w>
Cel sius</w>
^o ^</w>
recommend ation</w>
in ventions</w>
proce dure</w>
Ich iro</w>
Sait ama</w>
4 7
oo s</w>
ri sh</w>
k es
B ul
s our</w>
coun t
S pi
brea thing</w>
al es</w>
enti al</w>
week day</w>
dr ops</w>
na tives</w>
log ically</w>
disc oura
.jp \/</w>
quar ter</w>
predic t</w>
free zing</w>
zer o</w>
awar eness</w>
am ounts</w>
brief ly</w>
adequ ate</w>
3 9
K ou
ww w</w>
exc es
na il</w>
ten sion</w>
gg age</w>
Wor d</w>
ad ju
mo chi</w>
citiz en</w>
Bus an</w>
quali ties</w>
hear ted</w>
low -
Dar k</w>
gar lic</w>
i. e</w>
tit udes</w>
miser able</w>
- _
A w
r ot</w>
sta ys</w>
stor y
L ea
adv anc
Mon ey</w>
inter view
N inten
Fu ture</w>
Pl us</w>
Gre ek</w>
wai st</w>
drama tic</w>
divor ce</w>
neu tr
esti mated</w>
mo squit
3 7
q </w>
E M
i e</w>
ff s</w>
he al</w>
so le
hu g</w>
home less</w>
C ant
r ang</w>
na sty</w>
Pr ince</w>
reci pes</w>
liqu id</w>
aca demy</w>
admini stration</w>
experi encing</w>
Geor ge</w>
m -
en g</w>
st an</w>
F all</w>
A tt
ro ts</w>
tion ing</w>
S qu
pa y
s man</w>
ele ph
el iness</w>
re present</w>
swe ar</w>
stra tions</w>
ter min
log ic</w>
Hel lo
absor bed</w>
sche me</w>
Cla us</w>
curi osity</w>
fi scal</w>
par ti
Kan to</w>
Q Q</w>
18 th</w>
invol ves</w>
H EL
me ets</w>
cigare tte</w>
conclud e</w>
Cof fee</w>
J -
en a</w>
M oun
di pl
gr at
mor ous</w>
re start</w>
i sh</w>
c enti
Ex am</w>
U don</w>
bal lo
requ ested</w>
16 th</w>
wei gh</w>
D eath</w>
certific ate</w>
3 5
G I
T re
ch o</w>
ef s</w>
boo ked</w>
har a</w>
U N</w>
as ed</w>
direc tions</w>
por tion</w>
accoun ts</w>
cla uses</w>
Cul ture</w>
tradi tions</w>
cal ligraphy</w>
yo gurt</w>
om o
w ars</w>
all ing</w>
i est</w>
S hu
ca sts</w>
char m</w>
bro ad</w>
brea ks</w>
ari ous</w>
lon g
8 :00</w>
caf es</w>
peop les</w>
host el</w>
worl d-
fit ness</w>
Tako yaki</w>
V ac
nu ance</w>
L E</w>
che ap
s orts</w>
s giving</w>
hea ds</w>
inter nal</w>
Ar gent
destro y</w>
bed room</w>
avoi ded</w>
Glo bal</w>
con fusion</w>
H I
P I
K -
gu </w>
ke en</w>
sc ope</w>
P E</w>
preci se</w>
cere mon
co ordin
occur ed</w>
inj ury</w>
bal anced</w>
encoura ging</w>
tun a</w>
comm itted</w>
acquaint ance</w>
Egy pt</w>
funda mental</w>
Profe ssor</w>
Ropp ongi</w>
n y
z o
S ad
be ca
jo y
tom mor
wal ks</w>
ton i
cha irs</w>
pra ying</w>
one self</w>
typic ally</w>
cro ssing</w>
bul let</w>
dist inc
souven irs</w>
Kan agawa</w>
lux ury</w>
Ok onomiyaki</w>
scol ded</w>
cafe teria</w>
Disney land</w>
mi st</w>
ta g</w>
en able</w>
pri son</w>
br ac
or ite</w>
Mar k</w>
continu ation</w>
ow ners</w>
Ob viously</w>
:00 am</w>
ran king</w>
D AY</w>
tric ky</w>
Veg as</w>
state ments</w>
W H
in et</w>
imp ly</w>
mu ch
ste am
ev en
6 00</w>
fr on
scri p
stat ue</w>
mar t</w>
thre at
regre tted</w>
quali fication</w>
Tur key</w>
N BA</w>
long- term</w>
len ses</w>
clai med</w>
prof iciency</w>
mi gration</w>
bour ne</w>
z one</w>
R ome</w>
T ele
gra mmer</w>
cre ates</w>
econom ical</w>
dev ast
C ambo
weak ness</w>
evalu ate</w>
industri al</w>
*-*- *-*-
Singapore ans</w>
org anic</w>
opti mistic</w>
JAP AN</w>
cheri sh</w>
stomacha che</w>
lu ggage</w>
0 7
ti le</w>
T ex
sh ore</w>
par en
sp in
ma kers</w>
l ens</w>
f ur</w>
assi st</w>
si mul
in complete</w>
contribu ted</w>
hair style</w>
mini mum</w>
associ ation</w>
Che ck</w>
apologi zed</w>
deca de</w>
uni verse</w>
reve aled</w>
Associ ation</w>
0 9
U M
- I</w>
ap le</w>
I ke
lang 8</w>
a ward</w>
din ing</w>
vac u
Com b
Sp ace</w>
10 ,000</w>
inter ior</w>
prev ented</w>
deep er</w>
disgu sting</w>
Communic ation</w>
u ed</w>
k an</w>
comm it</w>
clas si
au to
loo se</w>
e gg
de fine</w>
sn ap
Bo y</w>
op posed</w>
Te mple</w>
pre fec
La w</w>
Gener al</w>
she ll</w>
Tech n
bran ches</w>
industri es</w>
expl ore</w>
Ja mes</w>
clari fy</w>
maxi mum</w>
feature=player_ embedded</w>
at titudes</w>
ic ed</w>
L ab
mar ked</w>
ali ze</w>
suc ks</w>
To ku
contribu tion</w>
self- introduction</w>
fa iry</w>
Wa sh
meaning less</w>
propo sal</w>
favor ites</w>
princi pal</w>
Ap parently</w>
defe ated</w>
port able</w>
inev itable</w>
ch ri
de er</w>
be ars</w>
dre ss
si zed</w>
form at</w>
ven ding</w>
ble w</w>
vi sual</w>
en cies</w>
quali fied</w>
uri ous</w>
Buddhi sm</w>
liqu or</w>
supervi sor</w>
puni shment</w>
electr onics</w>
supri sed</w>
A k
C a</w>
ow -
on \/
3 00
6 9</w>
6 7</w>
memor able</w>
gen re</w>
dre ssing</w>
keep er</w>
hom ep
memori al</w>
re serve</w>
mur der</w>
lun ar</w>
Braz ili
chor es</w>
O UT</w>
n atto</w>
gun s</w>
Beau tiful</w>
intel ligence</w>
r g
Y en</w>
H it
ke i</w>
6 2</w>
pro c
ep y</w>
de cent</w>
sha pes</w>
per mission</w>
Con tin
program me</w>
shad ow</w>
talk ative</w>
Kyu shu</w>
e k
s _
mo tion</w>
S ol
sin s</w>
I shi
jec tion</w>
respe cted</w>
attrac tion</w>
repe ating</w>
canc el</w>
sal mon</w>
argu ed</w>
An sw
sign al</w>
roo t</w>
Ba seball</w>
mil lions</w>
fac tories</w>
splen did</w>
Portu guese</w>
ap es</w>
ra ti
na ked</w>
min d
bi sh</w>
un sure</w>
con serv
Po li
manag ers</w>
ma ster
se ctions</w>
di stant</w>
estab lish</w>
low est</w>
di ligent</w>
re tire</w>
Con gratulations</w>
Gin za</w>
lingu is
U eno</w>
は </w>
w ha
m ..</w>
op o
rec y
pp ers</w>
so le</w>
= 1</w>
stor ed</w>
ser ver</w>
re ward</w>
Li br
Wi i</w>
S O</w>
d ances</w>
su it
poll u
confir med</w>
Sel f</w>
Ph ys
Exc use</w>
hero ine</w>
4 8
K O
6 -
S ay</w>
al \/
imp er
sc u
see king</w>
ing ..</w>
pl um</w>
resul ted</w>
Me eting</w>
L os</w>
F ac
spee ches</w>
laugh ter</w>
practic es</w>
spre ading</w>
Su mo</w>
Afri can</w>
lun ch
colle cting</w>
pre positions</w>
ad mitted</w>
CE O</w>
sandwi ch</w>
no stal
G y
t ..</w>
T ree</w>
shi -
bir th
ther mal</w>
ed it</w>
begin ners</w>
ht ml</w>
non- Japanese</w>
Ta ke
con stant</w>
poe try</w>
illu stration</w>
crea tivity</w>
can did
princi ple</w>
susta in
Imp erial</w>
n in
B or
L as</w>
est ate</w>
min i</w>
per man
sk ill
che f</w>
Some body</w>
sub scri
10 .
O ops</w>
bar ber</w>
9 :00</w>
bal let</w>
colle ges</w>
scienti st</w>
out standing</w>
anti -
17 th</w>
imp oli
con tained</w>
surpri singly</w>
qtl bar</w>
nutri tion</w>
jus tice</w>
aband oned</w>
backgr ounds</w>
i pod</w>
green house</w>
blan ket</w>
Net work</w>
← </w>
inter s</w>
T own</w>
E A</w>
bi e</w>
ten der</w>
de pic
ba ths</w>
in tense</w>
v ine
j unk</w>
import antly</w>
Mar athon</w>
drama tically</w>
desper ate</w>
insp iration</w>
Ninten do</w>
K en</w>
M it
\/ a</w>
l or</w>
st rea
am in</w>
char ity</w>
out put</w>
J ob
p le
Uni on</w>
ag o
6 :30</w>
re source</w>
conne cting</w>
nation ality</w>
Tal k</w>
bil ingu
. php</w>
bak ery</w>
or chestra</w>
lon eliness</w>
E f
B an
com ed</w>
P as
e ag
. \/
b ound</w>
mon ster</w>
gin ger</w>
sal ty</w>
ci ation</w>
dou gh
under ground</w>
con ta
el ders</w>
pres ence</w>
h mm</w>
secon d-
Bus y</w>
believ es</w>
demon str
resc ue</w>
dio xide</w>
C e
er n
B ay</w>
enjo ys</w>
ha tes</w>
es s
ab bed</w>
br ands</w>
stri ke</w>
Sa me</w>
sel ler</w>
Su per</w>
eng lish
ber g</w>
:00 pm</w>
de lay</w>
ste ady</w>
canc elled</w>
Dr inking</w>
manufactur ing</w>
oblig ation</w>
ele gant</w>
alco holic</w>
immigr ants</w>
close st</w>
inter mediate</w>
O f
G R
d an</w>
b ay</w>
P ra
tal s</w>
ste w</w>
6 3</w>
car es</w>
Ma ster</w>
ob a</w>
v ast</w>
s nee
cr y
produc es</w>
arri ving</w>
grap her</w>
con tain
vir tual</w>
soo oo</w>
puzz le</w>
mo vements</w>
stere o
lectur er</w>
Wash ington</w>
h s</w>
J en
D ic
al ds</w>
thin k
- D</w>
me d
__ </w>
pr ince</w>
se ven
te sted</w>
A P</w>
sli m</w>
En d</w>
ber t</w>
imp orted</w>
TE R</w>
se mic
edi tor</w>
sett led</w>
thor oughly</w>
bath tub</w>
dark ness</w>
Vac ation</w>
candid ates</w>
G al
B ic
or ters</w>
form ing</w>
dri ven</w>
supp le
gen es</w>
da ys
celebr ating</w>
un expec
rememb ering</w>
flav ored</w>
hesit ated</w>
zer land</w>
evol ution</w>
Boo ks</w>
Se eing</w>
Aca demy</w>
style =</w>
Fav orite</w>
S k
B on</w>
vi al</w>
E x</w>
pri est</w>
dr um</w>
O ce
we et</w>
impre ssions</w>
mini mi
tr uck</w>
29 th</w>
con temporary</w>
Fl ori
Swi t
.gov /
compla ints</w>
un forge
' in</w>
he i
le tting</w>
L et
st opping</w>
le an</w>
ac cor
fla sh</w>
TH </w>
tat su</w>
Rep u
gras p</w>
shri mp</w>
m s
D y
B on
p ad</w>
tra ding</w>
ten s</w>
con son
U E</w>
E T</w>
for getting</w>
cli p</w>
P sycho
Hir o
increas ingly</w>
aff air</w>
A gency</w>
champi on</w>
n abe</w>
celebri ties</w>
rail way</w>
Kag oshima</w>
-_ -</w>
z i
G on</w>
mon s</w>
ki -
i zed</w>
trac king</w>
s aturday</w>
travel s</w>
Ho sp
construc ted</w>
ne ck
UN I
prof its</w>
athle tes</w>
Ser vice</w>
sna ke</w>
fri ghtened</w>
tane ously</w>
wi reless</w>
Mel bourne</w>
K Y
con ci
ul ate</w>
d able</w>
a mus
thr own</w>
Con ver
lon gest</w>
e ch</w>
pra yed</w>
interpre ter</w>
critici zed</w>
Mr s</w>
Elec tr
abbrevi ation</w>
cosme tics</w>
Smi th</w>
hir agana</w>
ani mations</w>
pud ding</w>
squi to</w>
Swit zerland</w>
or able</w>
C A</w>
Ch an
gr ay</w>
pro ved</w>
6 1</w>
c tic</w>
ele ven</w>
gu ide
ri cul
si um</w>
Some how</w>
answ ering</w>
hor ses</w>
reco very</w>
encoura ges</w>
sop hom
\\ \\
asse ss
U. S</w>
bon us</w>
vi vid</w>
check up</w>
de sert</w>
reluc tant</w>
Bab y</w>
Fili p
O x
M P
I -
mi ld</w>
S how</w>
m ans</w>
bl ow</w>
la unch</w>
a me
h ired</w>
flo ating</w>
Ro ad</w>
J azz</w>
possi bilities</w>
listen er</w>
Medic al</w>
Cer tainly</w>
secon dary</w>
arti ficial</w>
org\/wiki \/
expo sure</w>
tw enty-
impoli te</w>
wel comed</w>
Y e
l end</w>
D A</w>
sin c
e ds</w>
hal f
J un
vol can
motiv ate</w>
ke mon</w>
Joh n
health ier</w>
destin y</w>
Swe den</w>
L ord</w>
caf é</w>
mush rooms</w>
Fr ankly</w>
encounter ed</w>
bag gage</w>
k on
be e</w>
G ot</w>
te a
f ate</w>
con no
tom or
3 4</w>
F R</w>
ob se
ic e-
st mas</w>
har mony</w>
ob served</w>
condition ing</w>
Te aching</w>
A ichi</w>
Ry oma</w>
re jected</w>
su spect</w>
remark able</w>
u to</w>
re fu
correc ts</w>
S ep</w>
3 8</w>
g ently</w>
s ne
w ings</w>
tri ck</w>
appe aring</w>
S atur
sli de</w>
bo ards</w>
audi o
house wife</w>
discus sions</w>
en za</w>
photo graphy</w>
facili ty</w>
manu al</w>
victi m</w>
gas es</w>
k usa</w>
cool ant</w>
6 5
J P
z i</w>
d ul
sen ti
ach ers</w>
ar chi
progra mmer</w>
un common</w>
conf lic
ti ming</w>
promo ted</w>
ign or
instruc tions</w>
R aku
fer tili
explo sion</w>
luc kily</w>
pha se</w>
adop t</w>
costu mes</w>
imp ati
respec tively</w>
ur gent</w>
Electri c</w>
Wea ther</w>
→ </w>
7 -
r o</w>
in ti
U m</w>
ir a</w>
tr o</w>
con qu
E ating</w>
is ol
o ther
en sive</w>
oc top
eri a</w>
gl ance</w>
sme lled</w>
li ber
occu pi
exten ded</w>
Hir agana</w>
prohi bited</w>
Mei ji</w>
car rots</w>
u re
' it</w>
at ri
ch in</w>
b i</w>
g at
ca tion
Be li
pe cu
r ows</w>
7 00</w>
out come</w>
T ru
Sh into</w>
19 5
j ew
1 10
Ste ve</w>
Pla ying</w>
corpor ate</w>
writ ings</w>
sinc ere</w>
H en
se \/
on ese</w>
tal ents</w>
th ful</w>
ke -
ad dy</w>
pho ons</w>
pl ates</w>
Sh ort</w>
Ch ange</w>
st ering</w>
H ong
net working</w>
inde x</w>
pro sper
Rob ert</w>
sa shimi</w>
L an
c ow</w>
K ur
mo l
de vi
u ts</w>
m un
ste el</w>
Ma y
hand ic
fla g</w>
anim ated</w>
. net
innov ative</w>
ste pped</w>
pe ak</w>
cro ss
k uro</w>
kat akana</w>
delic ate</w>
ae mon</w>
happ iest</w>
mp ed</w>
b ye
z ard</w>
versi ons</w>
deci ding</w>
s orrow</w>
8 4</w>
li ps</w>
mo tor</w>
3 7</w>
te st
lar ge
i ous</w>
cri pt</w>
descri p
posi tively</w>
Fe el</w>
c kets</w>
pronoun s</w>
at tribu
thre at</w>
fu ton</w>
199 9</w>
leg end</w>
hh h</w>
om itted</w>
index .html</w>
cel ona</w>
mother -in-law</w>
infec ted</w>
car eless</w>
Asa kusa</w>
occupi ed</w>
ang el</w>
comp ul
er ent</w>
he ating</w>
ur ant</w>
inter val</w>
e ur</w>
dis cover
oper a</w>
exi sted</w>
particip ating</w>
ca sually</w>
resi st</w>
resear ched</w>
resear ching</w>
sub stitute</w>
Or g
offic ers</w>
def ense</w>
posse ssive</w>
Cambo dia</w>
I '
C re
R ic
me ..</w>
c able</w>
wor ding</w>
di str
S oc
ai ms</w>
mus ic
ob li
r ang
bur g</w>
Pre sent</w>
dra gon</w>
fra gr
comp rom
s .com/
escap ed</w>
prin ter</w>
intel lec
inf eri
commu ting</w>
di verse</w>
prefer ence</w>
sandwi ches</w>
up dated</w>
Origin ally</w>
neces sity</w>
water melon</w>
obst acles</w>
a j
T op
d ong</w>
L ev
N A</w>
== =</w>
t ank</w>
ti res</w>
fl owing</w>
l ined</w>
develop ments</w>
Wi sh</w>
supp orts</w>
pain ter</w>
ini tial</w>
Ad d</w>
An dro
att acks</w>
199 8</w>
gu chi</w>
f ounded</w>
le mon</w>
Pi ece</w>
IM E</w>
ob servation</w>
wr apped</w>
resear cher</w>
a\/ the</w>
content =</w>
require ment</w>
opp onents</w>
Ea ster</w>
grand pa</w>
Thank sgiving</w>
homep age</w>
z -
U l
al y
sh out</w>
ol s</w>
sp an</w>
Y am
F oll
h ers</w>
re phrase</w>
eg ar</w>
day .
prote cted</w>
po etic</w>
n arr
frequ ent</w>
docu mentary</w>
enter pri
Tra vel
decor ate</w>
incredi bly</w>
fe males</w>
wait ress</w>
\/\/ en.wikipedia.
old- fashioned</w>
t weet</w>
Dor aemon</w>
9 9
win ds</w>
li ve
cur ed</w>
Any one</w>
Ha ma
har mon
F ast</w>
T T</w>
spo t
Be tty</w>
air line</w>
Pro ject</w>
atu re
re solve</w>
amb ul
occa sions</w>
G OO
lo gged</w>
ran ked</w>
C ooking</w>
li ghter</w>
negle cted</w>
Bar celona</w>
\/\/en.wikipedia. org\/wiki\/
G L
w ol
pr oo
7 2</w>
af for
oo ps</w>
^ __
b ones</w>
arri val</w>
Com ing</w>
cra w
medi um</w>
di sh
US D</w>
pronunci ations</w>
short -
Gr oup</w>
rom ance</w>
in fo
associ ate</w>
quar ters</w>
fol k</w>
26 th</w>
Brea k</w>
inter viewed</w>
than ked</w>
access ories</w>
passion ate</w>
NO TE</w>
S oba</w>
4 6
C ent
el li
at ers</w>
bo om</w>
e ic</w>
car ed</w>
ti ger</w>
coo ker</w>
gener ous</w>
cr ops</w>
10 :00</w>
end less</w>
Gu am</w>
ro lls</w>
Bas ed</w>
un employment</w>
quarre l</w>
conserv ative</w>
al a</w>
n as
wor m</w>
go ds</w>
go ssi
7 5</w>
fa thers</w>
che ered</w>
week ly</w>
sty lish</w>
air ed</w>
vo id</w>
th umb
Fi re
s wine</w>
life time</w>
secre tly</w>
tempor arily</w>
h iro</w>
sub mitted</w>
pr incess</w>
Temp erature</w>
americ an</w>
Ex cept</w>
unexpec tedly</w>
m .
f s</w>
ap p</w>
ta i
g by</w>
bu gs</w>
h its</w>
re late</w>
vac ations</w>
appe al</w>
sl ower</w>
ac compani
ri ght
de serve</w>
ea stern</w>
pan ic</w>
tur tle</w>
modi fied</w>
predic ted</w>
tion ist</w>
categ ory</w>
Ra dio</w>
VER Y</w>
more over</w>
si e</w>
ab use</w>
K now</w>
every time</w>
ky o
fin als</w>
sub ur
Y ours</w>
P ast</w>
fi ref
ani um</w>
it ations</w>
v ation</w>
Na me</w>
p sy
Fi ve</w>
W OR
Tak a
IC A</w>
interpre tation</w>
eth ical</w>
Cl ass
Regar ds</w>
diver ted</w>
guaran tee</w>
after shocks</w>
tremend ous</w>
hu morous</w>
Job s</w>
tri vial</w>
amus ing</w>
Andro id</w>
l -
us an</w>
coun sel
ste al</w>
ill a</w>
ori ent
op ens</w>
mp ire</w>
ex trac
a tives</w>
We dding</w>
6 :00</w>
7 :00</w>
no ti
Ni k
Dec </w>
col labor
- to-
h itting</w>
athle tic</w>
emp eror</w>
en rolled</w>
regu lations</w>
rati o</w>
gh s</w>
me .
W all</w>
s ers</w>
reas on
Ex peri
expen se</w>
pur ple</w>
pre jud
evalu ation</w>
hus bands</w>
automa tic</w>
Hak one</w>
Singapore an</w>
pump kin</w>
coinci dence</w>
ene mies</w>
and\/ or</w>
ceremon ies</w>
bu kuro</w>
I t
an es
s ms</w>
the ses</w>
ok u
to ast</w>
Re view</w>
ba shi</w>
de struc
Bo ys</w>
tow el</w>
ma iled</w>
Har v
Su rely</w>
memori zed</w>
A ging</w>
time -
in disp
arrang ement</w>
deb t</w>
op en-
- and-
por cel
consequ ence</w>
Brea k
al ternatives</w>
ti cons</w>
pub lish</w>
mosquit oes</w>
Oce an</w>
unforge ttable</w>
sophom ore</w>
A F
j </w>
5 C
un es</w>
ul ty</w>
ch ess</w>
St op</w>
re act</w>
si t
pre scri
origin ated</w>
influ ences</w>
ori ented</w>
maj ored</w>
Mic hi
Si mil
stron gest</w>
Lo st</w>
sho e</w>
frustr ating</w>
gre etings</w>
Doc tor</w>
en dations</w>
per fume</w>
Brazili an</w>
Libr ary</w>
snap vine
cur ricul
Filip ino</w>
. c
fr y</w>
po lish</w>
par ked</w>
all y
R oc
r ank</w>
ari ties</w>
sm en</w>
S ty
B E</w>
We b
re sting</w>
ki dding</w>
play ground</w>
Gre ece</w>
ani sm</w>
Ca fe</w>
Bi ll</w>
inci dents</w>
requ ests</w>
o logical</w>
Pl an
histor ic</w>
six th</w>
fac ial</w>
Rom an</w>
ga mbling</w>
Al ternatives</w>
pour ed</w>
re union</w>
Won der
occup ation</w>
mix ture</w>
pupp y</w>
ar tistic</w>
Argent ina</w>
U D
S in
d or</w>
se l</w>
an as</w>
di a
j et</w>
co a
lea se
happ y
bi a</w>
ch u</w>
S har
ex clu
clo set</w>
su es</w>
it ude</w>
J unior</w>
graph ics</w>
sal aries</w>
Pro ble
Lo ts</w>
^^ *</w>
cooper ate</w>
Wal king</w>
Dai ly</w>
par alle
slic ed</w>
opp onent</w>
straw berries</w>
octop us</w>
f ab
A ra
stud ing</w>
der -
gu es</w>
ra ine</w>
de sk
hi l
cap </w>
prop or
. uk
E arly</w>
appli ances</w>
super sti
new s.
behavi our</w>
lit an</w>
religi ons</w>
sele ction</w>
sty le-
IS H</w>
main taining</w>
down loaded</w>
al tern
Uk raine</w>
M R
V O
b in
t in</w>
ha mp
H ard</w>
diff er</w>
mu ff
gre et</w>
3 6</w>
edu res</w>
att ach</w>
i d=</w>
lic ence</w>
in expensive</w>
Ha haha</w>
ext end</w>
Sa fe
exp an
sh ee
ex changing</w>
tar o</w>
sw ing</w>
sho ts</w>
th ier</w>
va in</w>
T- shirts</w>
Se ason</w>
Repu blic</w>
Cant onese</w>
\/\/www. snapvine
S n
J O
k er
fin ed</w>
Mo der
mu lation</w>
Mar ket</w>
spiri tual</w>
lin ks</w>
hesi tation</w>
one theless</w>
hot test</w>
re solutions</w>
Her itage</w>
ec lip
bu ffe
cou ghing</w>
Answ er</w>
Flori da</w>
Te achers</w>
porcel ain</w>
1 :
ㅠ </w>
on a
b or</w>
H ur
W ere</w>
V ir
ar ro
C lo
be ers</w>
qu et</w>
e go</w>
ell er</w>
D rea
b anks</w>
easi est</w>
pur se</w>
profe ssion</w>
under graduate</w>
t ches</w>
oun dings</w>
pa irs</w>
frequ ency</w>
come dian</w>
28 th</w>
Angel es</w>
middle- aged</w>
pronoun ciation</w>
mo squito</w>
shee ts</w>
2 :
K n
V o
to x
vi o
B ye
S ong</w>
C our
he ated</w>
ma gn
Pe ace</w>
ab ata</w>
oper ations</w>
manag ing</w>
hosp itali
far mer</w>
pe tro
ri vers</w>
esti mate</w>
equ ally</w>
prom ising</w>
ony mous</w>
Ku ma
G aga</w>
:30 am</w>
Wil li
SF R</w>
glob alization</w>
channe ls</w>
_ I</w>
or a</w>
pre su
c ans</w>
s word</w>
ba king</w>
C M</w>
char ged</w>
qui z</w>
Hon da</w>
S mall</w>
p acking</w>
speciali st</w>
excep tions</w>
ob tained</w>
persu ade</w>
bilingu al</w>
Spe ech</w>
vin egar</w>
surr oundings</w>
b in</w>
li ver</w>
for ty</w>
d ough</w>
mu </w>
gi an</w>
po is
us ages</w>
re war
reali se</w>
b att
b ench</w>
travel ers</w>
mis understand</w>
TE D</w>
blo cks</w>
argu ments</w>
sun rise</w>
radio activity</w>
hu mble</w>
offici ally</w>
se mi-
beauti fully</w>
kill er</w>
assess ment</w>
proc edures</w>
\/\/www.snapvine .com\/
H H
ha m
ter ing</w>
ic hi
hi ding</w>
p un
au ction</w>
respon ses</w>
bri d</w>
p owers</w>
libr aries</w>
z awa</w>
shou ting</w>
ma gnific
T AK
ski pped</w>
sub tle</w>
Sci enti
Hea ven</w>
PC s</w>
hori z
Ox ford</w>
a x
3 :
I wa
ter ed</w>
fri day</w>
jo king</w>
na i
gu m</w>
i ds</w>
Ma j
up coming</w>
- type</w>
lim its</w>
divi de</w>
appro ached</w>
bo sses</w>
un till</w>
199 0</w>
preci sely</w>
cont acted</w>
S ony</w>
ty phoons</w>
7 7
st o
g li
ur s</w>
B all</w>
bu g</w>
gi ant</w>
str ing</w>
ki m
sy mb
S che
coo ling</w>
Con cer
desi gners</w>
compla int</w>
ingredi ent</w>
be aches</w>
predic table</w>
person nel</w>
in sufficient</w>
fu cking</w>
tag s</w>
Speci al</w>
collap se</w>
barri er</w>
Demo cratic</w>
\/\/www.snapvine.com\/ b
f an
F il
in spe
tal es</w>
tr ance</w>
cu ts</w>
E 5</w>
web -
fri dge</w>
Mi ddle</w>
f abul
lish ment</w>
inten tionally</w>
Bu il
2 2nd</w>
O pen</w>
Indone sian</w>
No. 1</w>
trop ical</w>
responsi bilities</w>
lead ership</w>
recomm endations</w>
R en
ch u
C ra
ge on</w>
t ance</w>
se v
pro ven</w>
dis po
consi st</w>
y ang</w>
radi sh</w>
11 .
pl ur
stic ky</w>
bit ten</w>
bo xing</w>
fo x</w>
Des cri
T sunami</w>
princi ples</w>
ma sks</w>
certi fication</w>
pit ch</w>
N atto</w>
t wins</w>
ste adi
Den mark</w>
warm th</w>
un consciously</w>
Tur kish</w>
steam ed</w>
eclip se</w>
2 ,
L y
L ou
ch ir
ad as</w>
de sp
mu d</w>
min g
hel or</w>
se ttle</w>
4 4</w>
su res</w>
ss ors</w>
ro ad
form ally</w>
coo ks</w>
cu z</w>
scen ari
1 ,000</w>
3 1st</w>
Li ber
7 :30</w>
dep th</w>
credi ts</w>
gr ab</w>
27 th</w>
accur ately</w>
Introduc ing</w>
AB C</w>
make -up</w>
Tom oko</w>
ru mor</w>
before hand</w>
Gu angzhou</w>
con grat
pecu liar</w>
compul sory</w>
o h
★ ★
gh ed</w>
' but</w>
coun ted</w>
h op</w>
m and
watch es</w>
be ating</w>
ki e</w>
st ages</w>
for um</w>
St or
ment ing</w>
grap es</w>
Bo b</w>
Di rec
run ners</w>
vege t
gy m
__ _</w>
text \/
behavi ors</w>
year- end</w>
cell -
sli pped</w>
atten dant</w>
G PS</w>
brow sing</w>
uri ty</w>
woo ds</w>
speci alty</w>
investi gation</w>
offici als</w>
concentr ated</w>
R unning</w>
car rot</w>
Po kemon</w>
isol ated</w>
Z h
D E
Z Z
J I</w>
ca ve</w>
sh ook</w>
le gi
or ph
9 5</w>
= D</w>
St one</w>
mista ken</w>
underst ands</w>
sn ows</w>
glo ves</w>
girl friends</w>
don ation</w>
inj a</w>
financi ally</w>
z uki</w>
condition ers</w>
critici sm</w>
speciali zed</w>
Econom ics</w>
symp athy</w>
mechan ical</w>
land lord</w>
ambul ance</w>
F F
ic e
re ar</w>
us s</w>
st \/
f i</w>
dr ow
D ance</w>
V oc
ser ted</w>
To shi
fl ood</w>
boo st</w>
V ide
serv ations</w>
suc ces
supp lies</w>
10 -
M B</w>
val id</w>
\/\/ twi
y ak
Ca mb
az awa</w>
auth ority</w>
for ests</w>
lo ading</w>
lin ked</w>
bla med</w>
Le ague</w>
rest room</w>
Cur ry</w>
Exa mination</w>
Ei ken</w>
soldi er</w>
r oughly</w>
theat ers</w>
++++ ++++
streng then</w>
astoni shed</w>
\/\/www.snapvine.com\/b p\/
w ou
T en</w>
t ang
f ice</w>
pri or</w>
7 1</w>
brea st</w>
seas on
desi res</w>
st ole</w>
prob ability</w>
Mon go
eng aged</w>
liter al</w>
Fu ll</w>
umb ers</w>
Fuku i</w>
Pl ace</w>
Wat ch</w>
imple ment</w>
En joy</w>
revi se</w>
obe y</w>
jus ti
dedic ated</w>
depar ture</w>
worth while</w>
Consi dering</w>
dolph ins</w>
sea weed</w>
cou sins</w>
UNI Q
half way</w>
Diff erent</w>
steadi ly</w>
G l
A W
' It</w>
o i</w>
B il
the mes</w>
ste st</w>
7 3</w>
. \/</w>
' S</w>
impro ves</w>
p ounds</w>
ali sts</w>
ici an</w>
P T</w>
inter face</w>
wr ap</w>
gg ling</w>
Ti ger</w>
T raining</w>
Pre sent
M ama</w>
Nor mal</w>
En try</w>
consu mer</w>
ene wa
the ories</w>
================================ ================
inf o</w>
Qu estions</w>
brow ser</w>
LO VE</w>
desper ately</w>
Tit le</w>
repeti tive</w>
un fortunate</w>
ex ternal</w>
GOO D</w>
in s
P an
a to</w>
ow ard</w>
ni e</w>
ti dy</w>
ca shi
ter i
ki do</w>
su ited</w>
part ments</w>
ed a</w>
~~~~ </w>
s que</w>
thou gh
gre ss</w>
profession als</w>
Cor por
1. 5</w>
purcha sed</w>
consul t</w>
black out</w>
consci ousness</w>
scul p
emo ticons</w>
fabul ous</w>
A t
8 :
0 s</w>
' an</w>
g st</w>
I ce</w>
m oo
b ang
ff y</w>
ak ers</w>
new ly</w>
ugh ty</w>
Re ad</w>
sha me
publi shing</w>
Te a</w>
mon os</w>
- bye</w>
atter ed</w>
100 0
fir st-
ru ption</w>
Cha mpi
un stable</w>
rub ber</w>
pod cast</w>
butter fly</w>
postp oned</w>
Ya kiniku</w>
g all
A ssi
gh ten</w>
In v
sent enc
ele ment</w>
li um</w>
deci des</w>
y uk
yo shi</w>
hun t</w>
Di sc
rela x
expec t
Gr and</w>
soo o</w>
ab ase</w>
ens able</w>
pill ow</w>
pour ing</w>
eleph ant</w>
influ enza</w>
sat elli
W ant</w>
se i</w>
du </w>
v =</w>
ri ses</w>
et ary</w>
9 00</w>
Sh er
high school</w>
sha mp
cra sh</w>
val =</w>
a tively</w>
Pre ss</w>
X X</w>
re views</w>
yo za</w>
Han ami</w>
gentle man</w>
Moun tain</w>
conflic ts</w>
6 :
me ch
ma il
rec k
mon day</w>
S tra
te am
out line</w>
inter act</w>
F ant
introduc es</w>
flo ors</w>
drea m
mu tual</w>
se chi</w>
un likely</w>
comm unities</w>
L earn</w>
AL L</w>
decor ations</w>
critici ze</w>
con taining</w>
C ze
restri cted</w>
2011 \/
font- family</w>
King dom</w>
semic ol
Safe ty</w>
V e
Th om
at -
ir re
pe de
t w</w>
hi p</w>
wh il
sp y</w>
fi le
4 2</w>
B ank</w>
icul t</w>
un its</w>
Ma o</w>
cre ation</w>
eas ed</w>
dri ves</w>
e dition</w>
visi ts</w>
cat a
uk a</w>
hon ey
examin ed</w>
s .I</w>
consider able</w>
new s/
ro cks</w>
D J</w>
Intro duce</w>
198 6</w>
posse ss</w>
Japane se
investi g
Japanese- style</w>
\/\/\/\/ \/\/\/\/
Sec re
disap pointing</w>
remo te</w>
exces sive</w>
Squ are</w>
parti cles</w>
joy ful</w>
perman ent</w>
proo f
text\/ html</w>
sacri fice</w>
7 5
P L
j a</w>
s in</w>
si l</w>
exc la
E 6</w>
bo thers</w>
Un der
ven ue</w>
cra shed</w>
Ar tic
apart ments</w>
tal ler</w>
phras ing</w>
imp o
regre ts</w>
23 rd</w>
Mus li
shel ter</w>
Ki mono</w>
en roll</w>
did nt</w>
de vote</w>
passen ger</w>
htt p-
D inner</w>
screa ming</w>
applic ants</w>
Vic tori
eag er
magn itude</w>
Tan abata</w>
W oo
at y</w>
la g</w>
er ts</w>
du b
sc oo
S ei
mor s</w>
bo x
pu ri
ai med</w>
her oes</w>
stra i
pri ced</w>
consu me</w>
equi pped</w>
survi ved</w>
An ne</w>
nic er</w>
min gly</w>
i frame</w>
charset =
Regar ding</w>
Tar o</w>
ill nesses</w>
Hal f</w>
I rish</w>
tea mm
indisp ensable</w>
equi v=</w>
http- equiv=</w>
n '
7 :
M L
S on</w>
K an</w>
an ity</w>
ve \/
inv ent
ch ick
app lies</w>
in ju
12 \/
immedi ate</w>
v ity</w>
Ra ther</w>
construc t</w>
AK B
pal ace</w>
Fun ny</w>
mon keys</w>
seas onal</w>
subsi dies</w>
Good bye</w>
O taku</w>
preten ded</w>
apo strophe</w>
curricul um</w>
magnific ent</w>
語 </w>
u d</w>
H in
Y an
C ro
A us
vi l
pre si
ac id</w>
g ary</w>
. 1</w>
e ans</w>
shi on</w>
A part</w>
li cation</w>
sleep s</w>
G M</w>
hun ger</w>
org ans</w>
p ale</w>
ori fic</w>
new s\/
can di
fer ence</w>
Ro gers</w>
pr ene
cr ab</w>
Pla y
Bel ow</w>
acquaint ances</w>
el abor
dis abled</w>
vul ner
interview er</w>
prefec tures</w>
dress er</w>
lux urious</w>
Hosp ital</w>
S I
e e</w>
C ir
li al</w>
el er
vi et</w>
r ope</w>
no ve
**** </w>
b less
che ering</w>
na ise</w>
pe ti
ta ils</w>
fru it
mar tial</w>
pow er
Ch icken</w>
li ghtly</w>
Is la
albu ms</w>
bil li
rep orter</w>
id =
eye sight</w>
kno cked</w>
good- bye</w>
dele ted</w>
laz iness</w>
per cei
devo ted</w>
backgr ound-
Al ternatively</w>
Of ten</w>
accompani ed</w>
buffe t</w>
. or
j ing</w>
C at</w>
li p</w>
si te
mi a</w>
v ary</w>
an der</w>
ul ated</w>
ph en</w>
yest er
ok i</w>
t ness</w>
lear n
Ti m</w>
art work</w>
co stly</w>
sli p</w>
S F</w>
smar t
Stud ent</w>
broad en</w>
adm ired</w>
consu ming</w>
EN T</w>
Y uki</w>
reduc tion</w>
identi fication</w>
hambur gers</w>
clai ms</w>
fir mly</w>
may on
cockro ach</w>
Psycho logy</w>
obse ssed</w>
impati ent</w>
Beli eve</w>
affor dable</w>
AKB 48</w>
C .</w>
th en
st in</w>
m ere</w>
ad o
par ent
est y</w>
gra ding</w>
4 1</w>
stor age</w>
F ew</w>
du ties</w>
son g
pi le</w>
Some time</w>
visi tor</w>
medic ines</w>
tab le
sli des</w>
pra yer</w>
lan e</w>
refle cted</w>
roo ts</w>
Bal i</w>
in dependence</w>
pil ot</w>
K FC</w>
institu tions</w>
tommor ow</w>
rub bish</w>
Soc cer</w>
J ICA</w>
S W
U r
K .</w>
it \/
he a</w>
o on</w>
under go</w>
Be gin
bl ing</w>
all owing</w>
Re al</w>
C E</w>
cap tain</w>
r ap</w>
Au stri
en vious</w>
hur ried</w>
un healthy</w>
defe at</w>
repeti tion</w>
encoura gement</w>
terrori sts</w>
overwhel med</w>
imit ate</w>
I zakaya</w>
na ughty</w>
pede stri
B en</w>
mo on
wh ic
G hi
he l</w>
sc ar</w>
5 5</w>
war ned</w>
communic ations</w>
ow er
f erry</w>
hon e
Mi d-
boy friends</w>
ma sters</w>
Jan e</w>
5 :30</w>
absolu te</w>
Tra ditional</w>
lan ter
enter taining</w>
Tan z
deri ved</w>
・・ ・</w>
dea ths</w>
Oper a</w>
Tex as</w>
symb ols</w>
com er</w>
te d
m ud
vi </w>
bo ld</w>
imp ul
u ment</w>
b all
sti r
wa ge</w>
di gn
wor ship</w>
flu te</w>
gen u
reac tions</w>
11 \/
foc uses</w>
appro val</w>
ac efully</w>
the irs</w>
Pl an</w>
strugg led</w>
en titled</w>
S aka
depen dency</w>
,000 yen</w>
divor ced</w>
A uck
Ok ayama</w>
ser endi
discipl ine</w>
displa ys</w>
PI EC
Comb ine</w>
Org ani
enewa ble</w>
o t
M E
di le
K ab
lo an</w>
p ad
star ed</w>
Be t
de als</w>
man kind</w>
k un</w>
out let</w>
vac c
an cho
I P</w>
sha ved</w>
1 20</w>
fini shes</w>
ab normal</w>
mit ting</w>
Po int</w>
Fu ji
la yer</w>
re solved</w>
shi pping</w>
bac teria</w>
impro vements</w>
screa med</w>
amat eur</w>
Harv ard</w>
Michi gan</w>
whil st</w>
f ing</w>
P ur
pe d
ma id</w>
An dy</w>
sur ed</w>
mar vel
A C</w>
si tion</w>
produc er</w>
ha shi</w>
attrac ts</w>
don ated</w>
Yo shi
reduc es</w>
treat ments</w>
challeng ed</w>
re aching</w>
decl ining</w>
com positions</w>
weal thy</w>
AT ION</w>
mor nings</w>
terrori st</w>
police man</w>
Moder n</w>
fa stest</w>
amon gst</w>
PIEC E</w>
p y
Ｉ </w>
C C
wi </w>
ch -
in ch</w>
po et</w>
tu </w>
T able</w>
de pri
oc ar
S even</w>
whi sk
new s
Su mm
st ability</w>
reali zing</w>
con ditional</w>
curr ency</w>
Pro vi
Jo e</w>
Happ iness</w>
ph one
survi val</w>
flav ors</w>
Ch urch</w>
Ste p</w>
believ ing</w>
shel ves</w>
o graphy</w>
fi ve-
come dians</w>
Ex po</w>
civili zation</w>
e missions</w>
met aph
Techn ically</w>
nostal gic</w>
photo grapher</w>
mayon naise</w>
Auck land</w>
E s
e g</w>
a sh</w>
te ch</w>
fri es</w>
c ents</w>
ne g
A ge
ur ge</w>
ba thing</w>
Au g</w>
po sit</w>
ag e-
whe el
vir tu
Fin land</w>
swe ating</w>
tw in</w>
12 .
snow board</w>
secre ts</w>
cell ular</w>
rac ing</w>
AK I</w>
emplo yer</w>
prin ts</w>
\\ </w>
ar oma</w>
trav elled</w>
Ken do</w>
kne es</w>
Movi es</w>
pic ture
swi tched</w>
Sad ly</w>
ad orable</w>
cic adas</w>
acc eler
d =
A h
C R
le e</w>
sh o</w>
N one</w>
es /
su spe
mb ly</w>
I A</w>
imp ort</w>
to c</w>
In du
ele ss
en vel
s ors</w>
c ited</w>
expre ss
con fec
bu ried</w>
S ake</w>
^ *</w>
si ghts</w>
co zy</w>
org an</w>
ta sting</w>
exc uses</w>
ke t
op position</w>
doub ts</w>
hol es</w>
bla h</w>
han ami</w>
om ori</w>
t ape</w>
I II</w>
weap on</w>
thi ef</w>
prev enting</w>
Yama gata</w>
in stitution</w>
Tou ri
tack le</w>
accommo dation</w>
GI F</w>
jew el
A void</w>
UNIQ LO</w>
candi date</w>
Ghi bli
di ly</w>
st al</w>
en de
se p
wi der</w>
kin gs</w>
St at
temp er</w>
home -
har d-
se ssions</w>
hand made</w>
logi sts</w>
Z oo</w>
Gu ess</w>
gi ri</w>
interpre t</w>
Y aku
re volu
ony m</w>
oli c</w>
dialec ts</w>
actre sses</w>
Rep ort</w>
tra gic</w>
absor b</w>
job -
cosme tic</w>
etc .</w>
fish er
commit tee</w>
featur ed</w>
Aw SF
advanc ement</w>
im migration</w>
vacu um</w>
chri stmas</w>
intellec tual</w>
U p
i T
3 4
↓ </w>
い </w>
S on
S mo
e ..</w>
J ud
Y ang
es ..</w>
of \/
a while</w>
wi l
U R</w>
On line</w>
Sun days</w>
S im
respon ded</w>
Pri ze</w>
view ers</w>
T ired</w>
Pre par
da mn</w>
in door</w>
P hone</w>
kit ten</w>
199 5</w>
bu ck
nur ses</w>
a stron
re hear
ne vertheless</w>
water fall</w>
corpor ation</w>
out doors</w>
categ ories</w>
re viewed</w>
Ea stern</w>
Chang ing</w>
lef to
reven ge</w>
revol ution</w>
En trance</w>
charset= utf-8</w>
P R
U G
z ar
ow l</w>
v et</w>
li king</w>
sp la
m ice</w>
gra d</w>
- 1</w>
mer its</w>
R ose</w>
ki d
care ers</w>
examin e</w>
can ned</w>
comm ented</w>
di arr
progre ssive</w>
pow ered</w>
enjo yment</w>
Twi light</w>
decl ared</w>
ren ew
disap pointment</w>
fresh men</w>
Emp lo
conduc tor</w>
Yama da</w>
N abe</w>
non sense</w>
re al
. or</w>
at ly</w>
C all</w>
in fin
B ec
L D</w>
pro found</w>
in cur
sa dly</w>
b un</w>
pur su
poli tely</w>
a sia</w>
ut a</w>
2 50</w>
sa ki</w>
sa mples</w>
inst antly</w>
dama ges</w>
law yer</w>
now here</w>
b rains</w>
Econom ic</w>
vow els</w>
human ity</w>
G DP</w>
Dri ving</w>
Rest a
dipl om
tomor row
off ensive</w>
EN GL
Cze ch</w>
Ghibli </w>
E .
7 9
A Z
. f
& _
you t</w>
ent re
or ang
p ic</w>
mar ine</w>
infor ma
Su pp
mode st</w>
oni st</w>
No v</w>
Wester ners</w>
it ori</w>
sec tors</w>
motor bike</w>
qtl end</w>
spar k
reflec ts</w>
arro gant</w>
Kuma moto</w>
cashi er</w>
de posit</w>
I m
I B
K on
ti er</w>
r at</w>
Th r
M ir
H ad</w>
v able</w>
bet ter
star ing</w>
C au
l ent</w>
and as</w>
ra tional</w>
ta x
is \/
Ma in
et al</w>
resul ting</w>
dri ll</w>
pe c
bo shi</w>
C hile</w>
liter ary</w>
st alls</w>
temp ura</w>
mm mm</w>
Mi xi</w>
Is ra
wa stes</w>
kn itting</w>
circum stance</w>
weak er</w>
aller gic</w>
regi onal</w>
stimul ate</w>
theat re</w>
sar ca
neutr al</w>
cheap est</w>
rg b</w>
paragrap hs</w>
Fire works</w>
So viet</w>
background- color</w>
r enewable</w>
O l
6 9
E r
P ap
be ar
pa use</w>
pa ys</w>
ten ess</w>
col our
u mber</w>
cent ers</w>
F OR</w>
W ind</w>
ong -
particip ation</w>
meas ured</w>
p age
Imp ro
Correc tion</w>
Br own</w>
ok onomiyaki</w>
sub stan
effec tiveness</w>
illu strations</w>
gr abbed</w>
Satur days</w>
desk top</w>
E li
r us
pro to
O pp
gre y</w>
as ser
f old</w>
8 5</w>
di versity</w>
ic ker</w>
Sh ow
visi ons</w>
gra mm
gen e</w>
issu ed</w>
consider ably</w>
On sen</w>
idi ot</w>
ty ped</w>
d ingly</w>
To yama</w>
Holl and</w>
________________ ________________
secre tary</w>
full -time</w>
fra gment</w>
celebri ty</w>
di amon
dyna mic</w>
sr c
mus cular</w>
gard ens</w>
bub ble</w>
ro asted</w>
Travel ing</w>
ENGL ISH</w>
a o
S L
5 :
D -
y /
D an
H om
ow e</w>
se ed</w>
. as
* This</w>
C ool</w>
fe min
N ep
O ni
mar gin
ari se</w>
eng er</w>
ac kers</w>
sh opp
L ang</w>
H P</w>
d ants</w>
tion ery</w>
hur ting</w>
view point</w>
Com mit
Tr an
199 6</w>
affec tion</w>
conne ctions</w>
mel ted</w>
NO W</w>
cr acy</w>
hu gged</w>
prote cting</w>
ab undant</w>
Comp le
Pho to</w>
politici an</w>
Kat akana</w>
adi se</w>
den ied</w>
soy beans</w>
Bic ycle</w>
ban anas</w>
dat abase</w>
U F
E V
de l
L es
f ence</w>
se ment</w>
h our
ele cted</w>
l ap</w>
fi ghts</w>
tis m</w>
0 pt</w>
pu shing</w>
Par t
cal cu
lear ns</w>
econom ically</w>
depre ssing</w>
e co-
sequ el</w>
J im</w>
fa st-
re turns</w>
rab bits</w>
Z ac</w>
Bhu t
or ism</w>
Wom an</w>
contrac tion</w>
compe tent</w>
inter rup
negle ct</w>
ro ller</w>
uni versal</w>
beli efs</w>
S mart</w>
sustain able</w>
Dic tionary</w>
Har aj
gossi p</w>
fac ulty</w>
.co .uk
R ay</w>
ver i
un k
F la
co ke</w>
ni sh</w>
dis k</w>
S E</w>
clu m
cou se</w>
tr ends</w>
shi eld</w>
gui dance</w>
AR E</w>
instruc tion</w>
hoo ked</w>
who ever</w>
soci eties</w>
Natur ally</w>
ko tatsu</w>
Electr onic</w>
Ike bukuro</w>
semicol on</w>
Bhut anese</w>
~ I</w>
i or
ad ds</w>
ra m</w>
star t
sin k</w>
l ace</w>
ca ge</w>
g ments</w>
ca st
dr opping</w>
prop ose</w>
tici an</w>
under wear</w>
In ception</w>
exp ort</w>
Vi si
competi tions</w>
ful ness</w>
mi xing</w>
e mission</w>
I mag
s ound
multi -
lo cations</w>
eth ics</w>
acc o</w>
pre vention</w>
bo thering</w>
di ac</w>
dele te</w>
scrat ch</w>
discoura ged</w>
busines sman</w>
toni um</w>
Bet ween</w>
diarr hea</w>
^ 0
3 ,
O -
b at</w>
ra ys</w>
pro li
qu il
fi er</w>
. A</w>
Ch u
T op</w>
D ani
gin gs</w>
opp y</w>
M S</w>
am p</w>
oll en</w>
ch ili
hon y</w>
ge t
C G</w>
Ca use</w>
danc er</w>
be loved</w>
resi gned</w>
enter tain</w>
so- so</w>
bur nt</w>
ir regular</w>
indic ated</w>
Nor thern</w>
educ ate</w>
chest nuts</w>
conjun ctions</w>
Res pon
in visible</w>
quali fications</w>
McDon alds</w>
Let ter</w>
hy brid</w>
kim chi</w>
marvel ous</w>
f t
P E
in er
you -
sh -
y ab
hi d</w>
lo ses</w>
Y u</w>
C ari
ec t</w>
hu h</w>
Ac ci
sen ses</w>
t sub
col ours</w>
f ered</w>
pro vo
gener ating</w>
hand ling</w>
goo .
sp anish</w>
can dies</w>
resi dence</w>
8 :30</w>
so ak</w>
fol ks</w>
fol ding</w>
ne west</w>
TH IS</w>
grocer ies</w>
voc alist</w>
No bel</w>
la bel</w>
memb ership</w>
foun der</w>
Cho col
kic ked</w>
Pop ulation</w>
wh ales</w>
suit case</w>
large ly</w>
ur anium</w>
content -type</w>
Vide o</w>
shame ful</w>
expect ancy</w>
D D
z o</w>
L a</w>
ne at</w>
it .
D el
stud y
ali ke</w>
list ing</w>
kn it</w>
1 20
St ay</w>
cre ature</w>
desi red</w>
Ex change</w>
cap ture</w>
pa ins</w>
st ove</w>
ben to</w>
si ster
prepar ations</w>
cy cles</w>
conv ince</w>
puni shed</w>
ther -in-law</w>
full -
pharm acy</w>
etc ..</w>
ulti mate</w>
gree dy</w>
summari ze</w>
ru gby</w>
ocar ina</w>
Imag ine</w>
P .
J ac
op es</w>
ca m</w>
it ch</w>
ci a</w>
H all</w>
cor d</w>
N 1</w>
mb les</w>
pi ani
N ob
che ating</w>
J av
P eri
accep ting</w>
engin es</w>
jo int</w>
separ ately</w>
squ id</w>
mag ical</w>
com modi
es sence</w>
Fun d</w>
Rus sians</w>
Sil ver</w>
reven ue</w>
co tton</w>
sta ffs</w>
Nar uto</w>
Buil ding</w>
de partments</w>
ki monos</w>
vulner able</w>
substan tial</w>
c en
I ma
at \/
me \/
P ort
any ways</w>
ex cer
we dd
S ai
p ills</w>
swe ater</w>
Con ne
sl ope</w>
Me dia</w>
En viron
dec ei
vac cin
C OM
fro g</w>
cooki e</w>
trop o
mush room</w>
obst acle</w>
Progra m</w>
gad gets</w>
ag encies</w>
dough nuts</w>
pe tals</w>
D NA</w>
orient ation</w>
shamp oo</w>
hon orific</w>
iT unes</w>
5 9
Q U
th a</w>
H an</w>
ab s</w>
I ra
it ..</w>
hi me</w>
na vi
Y A</w>
ra yed</w>
==== </w>
p c</w>
ky u</w>
a si
Y ak
ve ter
c ows</w>
mean time</w>
ru ined</w>
t ones</w>
tou gh
flu ency</w>
un certain</w>
hom es
____ _</w>
contribu tions</w>
be aten</w>
lin e-
post -
stre tch</w>
fa iling</w>
fru stration</w>
Do g</w>
aci ous</w>
re lay</w>
tis sue</w>
y elled</w>
eth nic</w>
achiev ements</w>
oblig ated</w>
slic es</w>
light ning</w>
cand les</w>
confe ss</w>
subordin ates</w>
nom in
diagno sed</w>
extra ordinary</w>
simil arities</w>
Ai kido</w>
iP hone
dile mma</w>
Commit tee</w>
h -
T I
4 4
A .</w>
E di
as sa
H ang
es -
po le</w>
fr ying</w>
4 00
shi ma
t el
ty pe
favor able</w>
su ck</w>
situ ated</w>
s .com\/
op e
spo on</w>
in depen
Po or</w>
hand writing</w>
th ats</w>
inter action</w>
audi </w>
prev ents</w>
T ay
G W</w>
L AS
.jp g</w>
de vil</w>
appro aches</w>
hi lls</w>
pass word</w>
cler ks</w>
imm er
tori al</w>
understand ings</w>
Inter esting</w>
deman ding</w>
good- looking</w>
fat al</w>
regu lation</w>
pup ils</w>
recep tionist</w>
lim itations</w>
cell- phone</w>
tropo litan</w>
L I
3 1
- F
r in
U h</w>
' my</w>
de l</w>
A ga
c us</w>
Be ach</w>
8 8</w>
i le</w>
G old</w>
with \/
bl in
ven ess</w>
cha ir
consi sted</w>
Mo ving</w>
le gen
mom s</w>
tru m
doc tor
//www. n
Pr on
Tr ue</w>
docu ment
net works</w>
O H</w>
pan cake</w>
Langu ages</w>
def end</w>
accomp lished</w>
Cu stom
ja il</w>
ghten ing</w>
comp onents</w>
Stu dio</w>
utili ze</w>
PS P</w>
mid- term</w>
collap sed</w>
ori gami</w>
Kim chi</w>
con fron
Toku gawa</w>
Lev el</w>
Camb ridge</w>
Victori a</w>
deter ior
P D
l t</w>
- ing</w>
re ha
oo o</w>
P ir
en \/
vi le
in tri
fe ars</w>
gi a</w>
mm ..</w>
ri l</w>
sc and
S D</w>
en ses</w>
stu b
ac company</w>
de ck</w>
na ments</w>
chi ll</w>
cent u
R Y</w>
gl u
h older</w>
K ind</w>
inten sive</w>
Ki ds</w>
in appropriate</w>
good ness</w>
ful filled</w>
RE D</w>
thir sty</w>
ya o</w>
symp ath
ren ew</w>
Bl ack
S ex</w>
satis fying</w>
C RO
goo gle
Str ange</w>
bloom ed</w>
cri teria</w>
CO 2</w>
Syste ms</w>
Self- introduction</w>
resi dential</w>
bloo dy</w>
he ctic</w>
paralle l</w>
hospitali zed</w>
jewel ry</w>
T w
\ </w>
M M
n an
- on</w>
L un
vi su
wa y
T ad
L i</w>
K ate</w>
S he
p ound</w>
F our
lea k</w>
sh or
K am
St an
brea th
gover ment</w>
10 \/
11 :00</w>
day ..</w>
o date</w>
l ine
12 :00</w>
Ne ed</w>
gr own
2 40</w>
fire work</w>
cop ies</w>
promo ting</w>
kin g-
MS R</w>
T esting</w>
j elly</w>
hydr ange
kilo grams</w>
thumb </w>
Cari b
m at</w>
U me
. -</w>
tr ay</w>
in qu
sp ir
th read</w>
ste ep</w>
S ear
fun ni
ul u</w>
t sun
l ang</w>
cri es</w>
Te am</w>
as tically</w>
I bar
ener gy
sil ently</w>
neigh boring</w>
10 :30</w>
Pl ay</w>
announ ce</w>
oper ators</w>
architec t</w>
H mmm</w>
se wing</w>
proce ed</w>
mic rop
dis orders</w>
butter flies</w>
eli minate</w>
busi er</w>
Di ego</w>
^0 ^</w>
4 :
W O
t d</w>
C in
R ab
en vi
cl ed</w>
di ous</w>
mon k</w>
ga tions</w>
sc an
de e
tur ing</w>
W ak
ll a</w>
cre w</w>
out going</w>
pre ssion</w>
st rain</w>
T rain</w>
s ~</w>
uk o</w>
ali ens</w>
p orts</w>
st atu
j uni
avo ca
goo g
Qu e
sequ ence</w>
cop i
regi stration</w>
cal mly</w>
exagger ated</w>
count less</w>
mind set</w>
BL UE</w>
veget arian</w>
wou ld
b acco</w>
y i
6 8
J L
g al
b en</w>
be st
ic on</w>
mo i
stud ent
star ving</w>
Al l
fl at
sha de</w>
cal ori
nu ances</w>
2 :00</w>
mil li
guit ari
gol d
lon ging</w>
Do ing</w>
adap ted</w>
sa kura</w>
aband on</w>
Simp le</w>
AL LY</w>
wo ken</w>
Foo tball</w>
pod casts</w>
classi fied</w>
Yam an
mso- style-
Mar tin</w>
sci ssors</w>
inju ries</w>
i e
H 1
A y
N T
2 F
E th
a er
D om
N at
as a</w>
pa st
F ine</w>
comm ent
L au
sa ves</w>
N aga
shi p
pen gu
colle c
u ma</w>
ro ast</w>
4 7</w>
Eng l
Su p
top s</w>
after ward</w>
Me di
emplo y</w>
com pose</w>
p iled</w>
on ically</w>
on- line</w>
m alls</w>
h int</w>
pre served</w>
short ened</w>
lo ads</w>
four -
fail ures</w>
as sy</w>
scar f</w>
skir ts</w>
Yuk ata</w>
amaz on
subordin ate</w>
autom o
imple mentation</w>
agri cultural</w>
auth orities</w>
scrip ts</w>
MP 3</w>
John ny</w>
blog spot
mand atory</w>
sc attered</w>
Thom as</w>
hair dresser</w>
Resta urant</w>
cuc umber</w>
terr orism</w>
pri vile
C A
ver ing</w>
s th</w>
S it
sh it
t om</w>
b oun
S ir</w>
h ow
on going</w>
A ct</w>
desi r
ob jec
ri des</w>
mon ey
speci fied</w>
exp anding</w>
For um</w>
fi xing</w>
cru sh</w>
acqu ired</w>
be verage</w>
emo tionally</w>
law n</w>
li ghting</w>
reve aling</w>
vi gor
consul ting</w>
M BA</w>
My self</w>
Stu dies</w>
Swe dish</w>
investi gate</w>
Coun try</w>
distribu tion</w>
cap tured</w>
Egy p
Natur al</w>
fi erce</w>
agri culture</w>
We ek
s burg</w>
hil arious</w>
propor tion</w>
N onetheless</w>
x -
P y
r on</w>
Y as
lo s</w>
sa i
mor i</w>
** *
fr ank</w>
E C</w>
char t</w>
war ri
sol o</w>
cha sing</w>
in cl
con ce
Mi d
Y outh</w>
3 000</w>
lim iting</w>
spo iled</w>
jap an
tre ats</w>
C ath
dang ers</w>
cer tain
terri tory</w>
OR E</w>
equ als</w>
si zes</w>
tun es</w>
Mu ch</w>
prom ises</w>
Beau ty</w>
sa una</w>
IF A</w>
Sle eping</w>
Fe eling</w>
o xy
termin al</w>
devast ating</w>
contain er</w>
scenari o</w>
fi lial</w>
dign ity</w>
entre prene
Haraj uku</w>
1 /
ex it</w>
to es</w>
p per
inter n</w>
la ying</w>
r ating</w>
t down</w>
pi pe</w>
che er
F ini
cha se</w>
ex clud
serv ant</w>
s nor
Ex erci
Sun ny</w>
po ly
Every time</w>
Pro f
hand -
dis liked</w>
3 :00</w>
T ER
clear ed</w>
deli ber
199 7</w>
anal o
ta ko
re marks</w>
al ert</w>
faul ts</w>
re verse</w>
ex- boyfriend</w>
design ated</w>
schedul es</w>
cr ane</w>
journ alist</w>
po ttery</w>
compli ment</w>
Hear t</w>
inher ited</w>
acqua inted</w>
Blo ssom
bank rupt</w>
spin ach</w>
recy cling</w>
conno tation</w>
Raku go</w>
Sec urity</w>
yuk ata</w>
satelli te</w>
h l
as is</w>
vi an</w>
go d
li min
sp ort
Chin e
b and
Ma i
plan ed</w>
tre ating</w>
ru in</w>
star ring</w>
Com par
rep lies</w>
car ries</w>
A B</w>
Bri dge</w>
IN G
appli ance</w>
par tici
sli ce</w>
The ory</w>
apo logy</w>
cop y
S AK
vers y</w>
insp ire</w>
j ams</w>
achiev ing</w>
Holi days</w>
soooo o</w>
wrest lers</w>
ato yama</w>
ballo on</w>
simul taneously</w>
fragr ance</w>
pe acefully</w>
Carib bean</w>
' s
3 2
6 7
j in
L en
E at</w>
te ar</w>
f ers</w>
pro s</w>
der er</w>
co on</w>
a ment</w>
coun ty</w>
kin s</w>
ap pla
uc ks</w>
mer it</w>
4 3</w>
d yed</w>
In c
int on
H R</w>
20 s</w>
J ones</w>
F ire</w>
ed -
dic tation</w>
voc al</w>
cover ing</w>
5 :00</w>
si bility</w>
AN A</w>
adver bs</w>
lig ently</w>
Fi sh</w>
tri cks</w>
An pan
ag ara</w>
f lights</w>
f itting</w>
Bl ood</w>
Exa mples</w>
refle ction</w>
blo cked</w>
up stairs</w>
bom bs</w>
consul tant</w>
manufactur ers</w>
comp ati
Ed ward</w>
PC O</w>
transi tion</w>
Scot land</w>
Home work</w>
Sle epy</w>
supp orters</w>
Foll owing</w>
Wonder land</w>
Willi am</w>
eager ly</w>
clum sy</w>
F IFA</w>
O u
R &
t .</w>
M un
be ds</w>
per ate</w>
k ong</w>
comp ound</w>
pr one</w>
gra ded</w>
g ons</w>
st ating</w>
che on</w>
' T</w>
gra m</w>
pro jec
pe ar
stri ve</w>
d les</w>
Bo ard</w>
Tom o</w>
N either</w>
ho t-
sou ls</w>
hom o
l acks</w>
S TE
invol ve</w>
Gi ven</w>
sign als</w>
Mi ya
allow ance</w>
ambi tion</w>
brow se</w>
hospit ality</w>
puzz led</w>
IL L</w>
in sert</w>
who le
rel ating</w>
L isa</w>
poor ly</w>
air planes</w>
portra it</w>
cab inet</w>
Conver sation</w>
firef lies</w>
busines smen</w>
un predictable</w>
bac helor</w>
Saka moto</w>
serendi pit
plu tonium</w>
S audi</w>
dr astically</w>
W r
ん </w>
る </w>
v an</w>
un -
- like</w>
' because</w>
o ts</w>
b ers</w>
bl own</w>
pi er
Su mi
cho ir</w>
X mas</w>
loc ate</w>
ner ve</w>
adv ances</w>
US E</w>
prac tically</w>
fa ils</w>
str ator</w>
so da</w>
pre ssing</w>
lab our</w>
resi dent</w>
9 :30</w>
pre serve</w>
invol ving</w>
leg ally</w>
Co ast</w>
sion al</w>
sand als</w>
rec alled</w>
Po lice</w>
dete ctive</w>
que ue</w>
TE ST</w>
head quarters</w>
destruc tion</w>
altern ate</w>
he lium</w>
orang es</w>
contro versy</w>
ri e</w>
H at
re ver
fe ar
fa st
do se</w>
ad er</w>
str ay</w>
hi bi
pe ssi
pe ach</w>
be a
the ore
cl ue</w>
wa sh
de fec
K ai
f ont</w>
bas ics</w>
cap ability</w>
sub stance</w>
d ye</w>
oper ated</w>
Jo y</w>
C ross</w>
ank le</w>
exp lic
ma ki</w>
sc rap
fir ms</w>
pan cakes</w>
b ound
commu ter</w>
accur acy</w>
ony ms</w>
um -
T SU
stuff s</w>
xx x</w>
spec tac
avoi ding</w>
hard ware</w>
Origin al</w>
black outs</w>
2010 .
correspon ding</w>
comm erce</w>
cultiv ate</w>
Col bert</w>
Sher lock</w>
honey moon</w>
proli fer
H atoyama</w>
R& D</w>
A .
○ </w>
S K
v or
c on</w>
li an</w>
O mi
To y</w>
w ound</w>
cu p
st op
ha tt
duc k</w>
tic ul
chil dr
mb er
ori zed</w>
cur tain</w>
ru ins</w>
begin ing</w>
top ic
ac t
op pose</w>
stra w</w>
exerci sed</w>
prote in</w>
Vi ew</w>
moder ate</w>
resi stance</w>
Pr ac
pan el</w>
smoo ther</w>
deter mination</w>
M ade</w>
decor ation</w>
umbrell as</w>
appe aling</w>
S HO
athle te</w>
pick led</w>
fr ankly</w>
ern ity</w>
ms n</w>
inferi or</w>
teamm ates</w>
car eless
sw ollen</w>
CRO SS</w>
D P
p in</w>
B at
el and</w>
con g
tt le
j ong</w>
fu ci
fu ri
so de</w>
en dy</w>
p ly</w>
s ^^</w>
over -
b iting</w>
ou ri
M ick
ner ship</w>
P O</w>
conven tion</w>
Ar ch
x ml</w>
eas y-
mid term</w>
fore head</w>
min ority</w>
S ara
ku -
short en</w>
imagin ary</w>
proper ties</w>
entu res</w>
wr ink
omi ya</w>
decl ined</w>
heavi er</w>
tex ture</w>
compreh end</w>
Ty pe</w>
in- law</w>
wan dering</w>
disadvant age</w>
ti ve-
ad dressed</w>
li ghted</w>
PS 3</w>
susta in</w>
vari eties</w>
acces sible</w>
Pr incess</w>
Ale x
out weigh</w>
Hak odate</w>
H1 N1</w>
desir able</w>
* _
Y U
d _
in som
to ll</w>
tion \/
c el</w>
bu z
D own</w>
fu t
dr ome</w>
wh it
E 8</w>
P op</w>
W ell
200 8
exc ur
sen ds</w>
si bl
soci ally</w>
mon th
H T</w>
chi p</w>
Sh all</w>
Rec ent</w>
' mas</w>
Ar ti
environ ments</w>
wr ong
organi zing</w>
mon sters</w>
consider ate</w>
est ee
exc ee
en rich</w>
Sa int</w>
ble ssed</w>
short ly</w>
every one
exhi bit</w>
reci eved</w>
qu een</w>
AM A</w>
spr ink
:00 AM</w>
interpre ted</w>
sub stances</w>
us yu</w>
nee dless</w>
per mitted</w>
per mit</w>
bio logical</w>
Comm unity</w>
Swi mming</w>
revi sed</w>
nation alities</w>
sche mes</w>
inev it
Kit ty</w>
cop ied</w>
Mag ic</w>
fe eding</w>
deal t</w>
func tional</w>
gad get</w>
Simil arly</w>
we gian</w>
see mingly</w>
neck lace</w>
pre limin
G .</w>
e .</w>
l or
e ur
lo go</w>
cl ay</w>
b id</w>
so li
Ch oo
for bi
ali en</w>
mar i
ani an</w>
cour te
pri son
t ours</w>
J un</w>
M ach
chec ks</w>
i de</w>
arri ves</w>
P artic
wh ale</w>
oc curr
compani on</w>
cri tics</w>
smo ker</w>
pop u
Nor way</w>
mi ssion
resi gn</w>
life -
char ges</w>
argu ing</w>
3 60</w>
explo ded</w>
Luc ky</w>
E IK
bo dy
re viewing</w>
batter ies</w>
po ison</w>
p anda</w>
Ter ri
Cana dians</w>
respec tful</w>
pollu ted</w>
seven th</w>
conson ant</w>
prejud ice</w>
Corpor ation</w>
Europ eans</w>
wedd ings</w>
sibl ings</w>
L .</w>
C ou
L ar
J ay</w>
g al</w>
oo p</w>
on ic
mu st
mi st
gi e</w>
Ch all
col l
f ell
sy r
C ru
me ssed</w>
sever ely</w>
H yo
la sting</w>
H ER
spi der</w>
danc ers</w>
audi ences</w>
p acks</w>
fur thermore</w>
separ ation</w>
Ri e</w>
seas oned</w>
li cations</w>
shoo ts</w>
edi ted</w>
2 chan</w>
rep orting</w>
ver sus</w>
h ints</w>
infec tion</w>
ren ov
calcul ate</w>
la mb</w>
Peter son</w>
Lab or</w>
IK EA</w>
Dy nasty</w>
excla mation</w>
chili </w>
Peri od</w>
microp hone</w>
tako yaki</w>
TE PCO</w>
- 4
5 8
T at
u me</w>
ar ca
C ar</w>
* The</w>
k \/
la d
be i</w>
do or
mb s</w>
pre school</w>
happ end</w>
S uc
ma i
4 6</w>
che ated</w>
deli ght</w>
Li on</w>
sing ap
M L</w>
happ en
spo il</w>
S U</w>
Uni versi
a ya</w>
ver bal</w>
K AR
G od
S leep</w>
quo ted</w>
vers a</w>
post card</w>
s- old</w>
IC E</w>
teen th</w>
addic tion</w>
S now
satis factory</w>
tr apped</w>
Christi ans</w>
ancest or</w>
life styles</w>
de serves</w>
no ises</w>
Exc el</w>
A sians</w>
Hol mes</w>
Spi ri
landsc apes</w>
audio boo
fab ric</w>
inspe ction</w>
Con fuci
W u
E T
ap t</w>
no tion</w>
s ni
car t</w>
~~ ~
Re sul
b rain
B ang</w>
O ff</w>
run ner</w>
plac ement</w>
a mi
dic al</w>
US T</w>
tu tor
mi le</w>
far ming</w>
t su</w>
mer chan
AT E</w>
G ene
bio graphy</w>
r inging</w>
sna il</w>
2011 \/0
distribu ted</w>
Over all</w>
mu ggy</w>
un employed</w>
o taku</w>
sacri fic
susp icious</w>
din osa
kes pe
wol f</w>
Drea ms</w>
Kan azawa</w>
.f m\/
calori e</w>
audioboo .fm\/
I Y
子 </w>
o e</w>
b are</w>
la be
e es</w>
po se
b ol
. My</w>
0 1</w>
pen s</w>
be et
A ward</w>
u te</w>
In clud
yo -
ten ded</w>
na use
. youtube.com\/watch</w>
Mi le</w>
es cal
bur y</w>
Po st</w>
K hand
appro ved</w>
ap pointed</w>
G ossi
book stores</w>
contribu ting</w>
squ ee
che ek</w>
cell phones</w>
cra fts</w>
Comp ani
sh ino</w>
imp acts</w>
Char ac
Swe et</w>
inte gr
strop h
foun tain</w>
ken do</w>
ro yal</w>
Gar den</w>
kar ate</w>
concentr ating</w>
stoc ks</w>
replac ement</w>
AS AP</w>
va mpire</w>
R MB</w>
elabor ate</w>
Dani el</w>
trum pet</w>
Nor wegian</w>
7 8
en ri
' so</w>
de -
ang o</w>
do -
ca sin
wa kes</w>
. 2</w>
D au
o live</w>
ang -
spe ll
D C</w>
in ary</w>
.com .
ma ths</w>
ai ming</w>
gl ory</w>
De ad</w>
foll owers</w>
tra ine
cat ches</w>
th fully</w>
cra stin
ma stered</w>
y uki</w>
ph oned</w>
prin ting</w>
Gi fu</w>
clin ical</w>
exten sive</w>
inse ct</w>
List en</w>
J AL</w>
convinc ing</w>
Ke eping</w>
Sta tistics</w>
~~~~~~~~~~~~~~~~ ~~~~~~~~~~~~~~~~
k oku</w>
Lit erature</w>
my self
con sole</w>
meas ure
Experi ence</w>
ona ire</w>
accep tance</w>
swe aty</w>
p andas</w>
Chocol ate</w>
reha bili
Peter sburg</w>
Ni agara</w>
N 'T</w>
hatt an</w>
S S
＾ </w>
l on</w>
di se</w>
se al</w>
N et</w>
il es</w>
lea ther</w>
comp en
di ar
u x</w>
al ties</w>
in fini
won t</w>
s cold</w>
plan ing</w>
sa ma</w>
eng age</w>
pi gs</w>
g ang</w>
Pri son</w>
Bo at</w>
ro ll
tab let</w>
Ni pp
friend ships</w>
langu age
lim itation</w>
pregn ancy</w>
eye br
con stitution</w>
Y ES</w>
eigh teen</w>
ad dresses</w>
tra iler</w>
selec ting</w>
pa inters</w>
prosper ity</w>
T IME</w>
^__ ^</w>
cuc umbers</w>
buck wheat</w>
indepen dently</w>
mis understandings</w>
X 'mas</w>
inevit ably</w>
Sha kespe
① </w>
♥ </w>
9 -
G ri
diff ers</w>
cu t
In no
H am
N ing
N ations</w>
ner ves</w>
10 1</w>
Con t
____ </w>
bri d
li ty</w>
Per son</w>
co z</w>
1 :00</w>
partic le</w>
bar gain</w>
gui ded</w>
fra gi
conne cts</w>
Col om
ti ghtly</w>
AS E</w>
on sen</w>
ji -
bru shing</w>
car pet</w>
resear ches</w>
Ma thema
Ex press</w>
pal m</w>
evi dent</w>
expl or
Japanese- English</w>
Cul tural</w>
Coo led</w>
mo tto</w>
Gun dam</w>
knowled ge
bou quet</w>
Fant asy</w>
piani st</w>
stub born</w>
automo bile</w>
syr up</w>
n n
Y E
Y Y
p y</w>
in o
J in
J or
t is</w>
de but</w>
lo ad
si ts</w>
oun ted</w>
. In</w>
no ted</w>
P A</w>
s days</w>
gra in</w>
boo th</w>
I ll
H ide
i sts</w>
St ore</w>
a wan</w>
en na</w>
cr ap</w>
ph on
U P</w>
Wor d
re form</w>
Mi ke</w>
sp ices</w>
ta il
ace u
la mp</w>
n ine
fami li
abul ary</w>
inten tions</w>
auth en
phras al</w>
Ad mini
kit a</w>
wa ges</w>
fle sh</w>
sw allow</w>
identi fied</w>
re aches</w>
belon ging</w>
Val ley</w>
Imp ort
Gre etings</w>
4 29</w>
distin ct</w>
- chan</w>
bac on</w>
wide spread</w>
min eral</w>
Bel gi
Av ailable</w>
conclud ed</w>
distur b</w>
book shelf</w>
ii ii
rel ates</w>
AY A</w>
ful filling</w>
accumul ated</w>
gree ted</w>
conqu er</w>
p lease
re servations</w>
f oward</w>
whisk ey</w>
suspe cted</w>
A li
Y ay</w>
B un
W ent</w>
to e</w>
t r</w>
ap par
ver ted</w>
h en</w>
mu s</w>
re tri
e ks</w>
ke ting</w>
mm mm
mor n
pro ves</w>
Chin at
shi en</w>
V S</w>
str ings</w>
it als</w>
er als</w>
tra il</w>
er ies</w>
war a</w>
at tain</w>
T ext</w>
ho sted</w>
inv ent</w>
Inter view</w>
cli p
di men
- P</w>
na ire</w>
a shes</w>
5 000</w>
W hi
off ended</w>
smo ked</w>
s log
day ~</w>
we ster
gu ards</w>
draw ings</w>
15 0
Tr ying</w>
S ON
ki yaki</w>
post ure</w>
tire dness</w>
thir teen</w>
HA HA
qu itting</w>
Imp re
th west</w>
o- chan</w>
pack ages</w>
60 s</w>
Str ong</w>
B log</w>
jud gment</w>
ear nest</w>
preten ding</w>
F RI
syll ables</w>
reason ably</w>
metaph or</w>
femin ine</w>
fut sal</w>
Khand ani</w>
Man hattan</w>
H E
6 6
※ </w>
N R
t _
' is</w>
di ve</w>
se y</w>
st ent</w>
le tt
for \/
po ts</w>
gr ant</w>
pic s</w>
thin ner</w>
Ha ha
H ob
B ru
deli ght
Pro duc
A dding</w>
M ind</w>
can -
y elling</w>
comb ining</w>
he els</w>
\/\/ jp
exhau sting</w>
inter section</w>
Gra mma
19 80</w>
sign ature</w>
teen age</w>
proces sed</w>
Sur veillance</w>
corpor ations</w>
re tail</w>
z ona</w>
ini tially</w>
insul a</w>
Present ation</w>
Christi anity</w>
than asia</w>
Pir ates</w>
intri gu
statu es</w>
guitari st</w>
gold fish</w>
insom nia</w>
year s-old</w>
O B
F U
r s</w>
R .</w>
v an
om g</w>
k k</w>
ch ur
in n</w>
di f
ent ers</w>
di sch
bet es</w>
gi ous</w>
L ine</w>
se same</w>
is tic</w>
to kyo</w>
M um</w>
ch opped</w>
li shing</w>
A si
el der
Australi ans</w>
contro lling</w>
Gre en
shi ko</w>
11 :30</w>
inv ested</w>
self- confidence</w>
ir onic</w>
mel ting</w>
bul lied</w>
circu lation</w>
H eij
Cha p
in direct</w>
invest ing</w>
i dle</w>
:30 pm</w>
v s.</w>
will ingly</w>
house wives</w>
F oundation</w>
Gradu ation</w>
floo ded</w>
fea sible</w>
cockro aches</w>
por ridge</w>
inte grated</w>
influ ential</w>
skill ful</w>
vit amin</w>
minimi ze</w>
KY O</w>
Chan nel</w>
volcan o</w>
in dul
To eic</w>
desp air</w>
chick ens</w>
nove list</w>
ado le
ende av
Isra el</w>
src =</w>
Ira q</w>
oxy gen</w>
Gossi p</w>
m c
2 /
W an</w>
pe e</w>
st all</w>
pe ers</w>
S ad</w>
D ate</w>
u ation</w>
. We</w>
bu ys</w>
en ties</w>
si ties</w>
off -
ap ps</w>
F ight</w>
gh ters</w>
eas y
rec order</w>
heal ing</w>
E 7</w>
conver t</w>
**** *</w>
cr an
b ang</w>
Fin ding</w>
gen res</w>
ali zing</w>
adv ices</w>
tur key</w>
all y-
fore most</w>
scre am</w>
na mely</w>
in correctly</w>
tat ami</w>
me mo</w>
trans parent</w>
jo gged</w>
sh ita</w>
gr aceful</w>
six ty</w>
seas oning</w>
kno ck</w>
Ci ao</w>
Hou se
blu e
Mad rid</w>
poor er</w>
wit ne
HEL P</w>
po ckets</w>
comprom ise</w>
S usan</w>
Kn owing</w>
Bil ly</w>
Tanz ania</w>
Ky usyu</w>
M C
re y</w>
R ac
s ma
S to
ter -
ho ly</w>
sp ac
' A</w>
sc are</w>
gra der</w>
ge ons</w>
S at
wal k
you ^^</w>
cap s</w>
t att
Na o
cri tic
Me et</w>
main land</w>
sub title</w>
c ity
atten dance</w>
experi mental</w>
phras ed</w>
op hone</w>
Sy mp
contribu tes</w>
ro ck
English .
fir stly</w>
in directly</w>
- fried</w>
AM I</w>
T- T</w>
shar es</w>
pat ri
some thing
==== ==</w>
Mean ing</w>
susp ended</w>
AV AT
linguis tics</w>
an onymous</w>
cor ruption</w>
O sechi</w>
Diff icult</w>
la yout</w>
Tay lor</w>
mel tdown</w>
compen sation</w>
Ari zona</w>
W I
d an
B ou
ro e</w>
ag s</w>
par a
cl ar
F ore
==== =</w>
wi re</w>
sub -
J R</w>
heal ed</w>
Sh en
Hi me
sof tly</w>
cir cles</w>
B lu
beha ved</w>
col dest</w>
Lo l</w>
tat too</w>
mel t</w>
post cards</w>
Gra de</w>
Yu ki
doub le-
Wa it</w>
un reasonable</w>
inten sity</w>
^^ ^^
represent ed</w>
Kar ate</w>
execu tive</w>
Ro yal</w>
geo graphy</w>
col lar</w>
skin ny</w>
m aple</w>
Phys ics</w>
ma stering</w>
ㅠ ㅠ</w>
Descri be</w>
fruit ful</w>
genu ine</w>
Prof iciency</w>
inton ation</w>
di ligently</w>
prelimin ary</w>
disch ar
m l
p /
v om
be g</w>
B ac
C op
te ed</w>
be \/
g ang
tion -
sa il
do es
de ss</w>
g our
M A</w>
p ine</w>
ab sur
K S</w>
cur se</w>
Any how</w>
Sh op</w>
Li ke
ment ality</w>
pu bs</w>
continu ally</w>
con ju
bo ats</w>
sp ends</w>
u mn</w>
dis likes</w>
c key</w>
se ki</w>
. 2010</w>
F alls</w>
Ni hon
ex changes</w>
appropri ately</w>
Mic hel
jud ged</w>
Dra ma</w>
high- school</w>
dump ling</w>
sac red</w>
stric ken</w>
program mes</w>
three- day</w>
notic ing</w>
ear rings</w>
Hen ry</w>
discover ies</w>
anes the
in serted</w>
relax ation</w>
to bacco</w>
\/\/www. amazon
EIK EN</w>
FRI EN
TO KYO</w>
9 :
k r
k ou
h on</w>
or -</w>
me te
S am</w>
du le</w>
bo om
do ts</w>
min a</w>
fi a</w>
pre sti
gr u
br a</w>
a mp
anc e
l ing
ra il</w>
Any thing</w>
u ce</w>
you ~</w>
cou ch</w>
Mi so</w>
E U</w>
mar ily</w>
wi shing</w>
Di g
Ar my</w>
sear ch
lon ged</w>
spee ch
pl z</w>
tor o</w>
oper ator</w>
ici ent</w>
Ca mp
far ms</w>
whe els</w>
ti mer</w>
with draw</w>
te d\/
so aking</w>
lan ded</w>
edi ting</w>
nic ely</w>
hard ship</w>
in doors</w>
monit oring</w>
dete ct</w>
Mari o</w>
regre ttable</w>
\/ journals\/
Sent ences</w>
Sent ence</w>
resc ued</w>
egg plant</w>
in jection</w>
senti mental</w>
Fil m</w>
vacc ine</w>
goog led</w>
D R
B R
ha d
ri a</w>
O ne
ent -
s -</w>
d ar</w>
sa s</w>
ch ant</w>
ev ing</w>
pr o</w>
' You</w>
gr ounds</w>
lo ve
F requ
v ent</w>
fac e-
home made</w>
foo d
cr ack</w>
com memor
ri val</w>
la d</w>
grap e</w>
l as
L eg
compe tit
ext in
Ju li
4 :00</w>
can e</w>
co ats</w>
B F</w>
K AN
occur ring</w>
recogni tion</w>
Si b
signific ance</w>
vill ages</w>
val ley</w>
bul lying</w>
OO OO
surg ical</w>
pul ling</w>
invest ors</w>
toi lets</w>
enh anced</w>
or dering</w>
atom y</w>
After ward</w>
si ze
Char lie</w>
insp iring</w>
shu ttle</w>
rand om
weak nesses</w>
amaz ingly</w>
chr onic</w>
threat ened</w>
paren theses</w>
Han eda</w>
gall ery</w>
mech anism</w>
Austri a</w>
centu ries</w>
Ha yao</w>
mist ook</w>
Voc abulary</w>
Belgi um</w>
question naire</w>
l v
9 5
C S
R P
P at
il y
W ars</w>
gi sh</w>
sel s</w>
B S</w>
St and
develop er</w>
rep ort
W ang</w>
ack er
boo s\/
me ats</w>
ul t</w>
M AR
lo ser</w>
Gi ants</w>
tter ed</w>
Ka mi
oppo sing</w>
Sen ior</w>
fro gs</w>
analy zing</w>
Char les</w>
kat su</w>
que tte</w>
cand le</w>
paper backs</w>
idiom atic</w>
tooth ache</w>
train er</w>
descrip tions</w>
pedestri ans</w>
demo cracy</w>
Se tsub
excur sion</w>
\/\/ audioboo.fm\/
Okin awan</w>
de shiko</w>
\/\/audioboo.fm\/ boos\/
z om
n an</w>
C are</w>
per t</w>
coun ts</w>
opp er</w>
ma x</w>
col or
vo ting</w>
dra in</w>
che ers</w>
hel met</w>
ref rain</w>
communic ated</w>
vari ation</w>
disc lo
sle eved</w>
pic ky</w>
the tical</w>
ffici ent</w>
so dium</w>
jud ges</w>
Si x</w>
bre ed</w>
anti que</w>
De vil</w>
wi ped</w>
liter acy</w>
nic o
Phi losop
hard ships</w>
evalu ated</w>
chest er</w>
respe ctive</w>
Bel ar
******************************** ****************
sett ings</w>
volun tary</w>
Con stitution</w>
king dom</w>
obe sity</w>
may or</w>
Bro ad
e ternal</w>
hypo thesis</w>
initi ative</w>
sle eves</w>
HD B</w>
linguis tic</w>
fertili ty</w>
MR T</w>
Maj or</w>
express way</w>
cry stal</w>
rese mbles</w>
Rab bit</w>
Exerci se</w>
estee m</w>
Partic ularly</w>
AVAT AR</w>
8 5
R an
be es</w>
om at
y si
C ut</w>
se i
I de
M ar</w>
S lo
go sh</w>
sch i
gi g</w>
sc al
ome ter</w>
cul t</w>
ai ds</w>
man us
k ills</w>
develop s</w>
re ject</w>
t opped</w>
Bo dy</w>
prom in
compe ting</w>
me tab
fla sh
br ass</w>
up grade</w>
with stand</w>
e quality</w>
compla ins</w>
Fi g
wi ld
Ti gers</w>
ES S</w>
wi tch</w>
han dy</w>
t- shirt</w>
pd f
bu cket</w>
down stairs</w>
che wing</w>
out dated</w>
heart -
comp ens
er pill
vit a
streng th
overwhel ming</w>
der ella</w>
evacu ation</w>
ske tch</w>
eni x</w>
twee ts</w>
Ric hard</w>
accomp lishment</w>
\/\/twi tter
G lee</w>
belon gings</w>
Arch itec
par cel</w>
Hyo go</w>
tw enties</w>
col umn</w>
Setsub un</w>
C r
om a
ri -
ag i
n us
M ol
imp l
no t
. If</w>
wor ded</w>
' What</w>
col ds</w>
cer am
ac tu
pen ding</w>
a il</w>
o id</w>
wi pe</w>
mo ck</w>
fe ast</w>
adv oc
re tain</w>
. Or</w>
vari es</w>
less ness</w>
hur ri
Ar ts</w>
stra tive</w>
US B</w>
Po lic
sta mp</w>
2 ,000</w>
volunte ering</w>
sh iny</w>
bul l
zu shi</w>
hesit ant</w>
surf ed</w>
Don ald</w>
h iring</w>
thri lling</w>
pro tag
ki soba</w>
L abor
sales man</w>
Ale x</w>
accumul ate</w>
Hai ti</w>
adju sted</w>
conta minated</w>
M ess
coa ster</w>
hamp er</w>
Iwa te</w>
英 語</w>
bless ing</w>
Age ing</w>
Jav a</w>
JL PT</w>
Sup pose</w>
Anpan man</w>
serendipit ous</w>
shar ply</w>
Chinat own</w>
a h
y y
en e</w>
e ti
v in</w>
N ow
le le</w>
M ust</w>
wri te
go -
ga me
ta ke
00 00
ten th</w>
b ore
ky u
0 9</w>
l iness</w>
9 6</w>
cont ex
gar age</w>
ch er
co gni
Fin anci
perform ers</w>
cover age</w>
head set</w>
I denti
H AN
Ad am</w>
+ +</w>
fa int</w>
Ri ding</w>
tar ge
Gi on</w>
S ri</w>
tri gger</w>
in convenience</w>
valu ed</w>
point ments</w>
un willing</w>
decl are</w>
Pu bli
Cap itali
Je ju</w>
ya hoo</w>
ulti mately</w>
transi tive</w>
simpli fied</w>
sole ly</w>
nai ve</w>
Aus sie</w>
cast les</w>
incl ined</w>
rac coon</w>
prolifer ation</w>
Shakespe are</w>
笑 </w>
F er
F ar
D al
S op
m ab
t ap
F ra
ha ts</w>
fa me</w>
da sh</w>
col li
A tom
exc e
g ul
In side</w>
un ited</w>
less er</w>
inv iting</w>
Chri st</w>
C oke</w>
ood le</w>
Mon ster</w>
prom p
tru sted</w>
Ab solu
Ti an
f ill
tor n</w>
r ats</w>
Chi ld</w>
Qu o
20 ,000</w>
Ca se</w>
M mm</w>
G host</w>
Shi ga</w>
che mic
pan ic
na tionally</w>
fo g</w>
gri ef</w>
strang ely</w>
:00 PM</w>
purcha sing</w>
consul ted</w>
phenomen a</w>
P LE
imm une</w>
fer mented</w>
manufactur er</w>
TH AT</w>
alle vi
Rom ance</w>
robo tic</w>
ob serving</w>
guil t</w>
Ter min
| |</w>
Tou ch</w>
Tit anic</w>
emphasi zes</w>
re fund</w>
High -
chang eable</w>
du mb</w>
Chr is</w>
Photo shop</w>
ex otic</w>
beca use
Tele vision</w>
scu ba</w>
Mit su
Ste phen</w>
Begin ning</w>
impul se</w>
Kab uki</w>
\/\/jp .youtube.com\/watch</w>
Gramma tically</w>
ho ckey</w>
J in</w>
ti se</w>
ver t</w>
sh t
pe an
F ro
ne ur
si r</w>
s can</w>
a es
p ong</w>
S hel
ste in</w>
b ble</w>
watch \/
t ating</w>
natur al
ki a</w>
be ll
w ere
gg le</w>
eas ing</w>
D ru
Li d
An na</w>
maj ors</w>
ly ..</w>
trac ks</w>
per ception</w>
reg ul
Pre mi
vocabul aries</w>
sof tball</w>
stic kers</w>
lat te</w>
I ran</w>
Par t-
don ations</w>
crow ds</w>
hop e
D ay
de su</w>
P AR
construc ting</w>
AS A</w>
imagin ing</w>
su ri</w>
a wards</w>
circu it</w>
dep le
ro cket</w>
imm ature</w>
occu pa
Wal k</w>
avo id
perspec tives</w>
K agawa</w>
Sou thern</w>
ambi tious</w>
thri lled</w>
side walk</w>
23 8-
was abi</w>
slu mp</w>
centi meters</w>
Hu mans</w>
sit com</w>
new comer</w>
rehear sal</w>
pursu ing</w>
poli teness</w>
Ibar aki</w>
partici ple</w>
merchan dise</w>
fragi le</w>
pri marily</w>
Financi al</w>
u g
1 Q
Z i
E .</w>
er o</w>
G or
A re
Th ing</w>
W ood</w>
A ff
Wh o
w ool</w>
C ars</w>
fi st</w>
enc y
0 3</w>
col a</w>
mar ch</w>
my th</w>
4 9</w>
out -
contin ent</w>
inc es</w>
publi c
ey el
u shi</w>
un g
Wor k
vir uses</w>
Pro v
e at
fl ats</w>
The me
p ine
sof t
sil k</w>
ma tically</w>
al located</w>
A X</w>
Mo bile</w>
zz ling</w>
. 2011</w>
Fi ref
u mm</w>
bit ter
cop ying</w>
AT M</w>
spr ay</w>
H atsu
imp lan
bon ds</w>
mit tedly</w>
Sal t</w>
demo cratic</w>
li fting</w>
in definite</w>
air- conditioner</w>
U pon</w>
.edu /
paren thesis</w>
conci se</w>
team work</w>
Artic le</w>
ru mors</w>
asse mbly</w>
Compani es</w>
pharm aceu
Heij u</w>
random ly</w>
nico video
Lid Theme
° </w>
p =
ｓ </w>
li b
- in</w>
C le
di g</w>
ha un
ou ter</w>
p ag
Ma il</w>
bl ows</w>
war med</w>
A E</w>
Fr an
differ enti
er up
tion ality</w>
flu id</w>
Mi e</w>
Fri ed
swi m
gl \/
ri sky</w>
pati ently</w>
20 50</w>
flo at</w>
z ai</w>
Fri end
comb at</w>
us tice</w>
smar ter</w>
inst al
4 :30</w>
re moving</w>
m ura</w>
tar gets</w>
English ..</w>
consu med</w>
asse ts</w>
Res our
six teen</w>
irrit ating</w>
environ mentally</w>
AS HI</w>
illustr ate</w>
toler ance</w>
ble eding</w>
Shir in</w>
C leaning</w>
20 110
imple menting</w>
vil le</w>
Provi dent</w>
envel ope</w>
job- hunting</w>
par adise</w>
sli pper
IG HT</w>
V E
D an</w>
be ver
- mo
mi ll</w>
wri st</w>
spe l</w>
u ous</w>
ev al</w>
so o</w>
c us
d read
gre e</w>
d ou</w>
* You</w>
rec ite</w>
- 2</w>
9 8</w>
o dy</w>
c it
ki ssed</w>
g ates</w>
inc enti
S wan</w>
conver se</w>
Hi k
ly .
lo y
wa ys
sp her
tor ture</w>
Pre tty</w>
g ross</w>
Vi ew
oo oo</w>
t antly</w>
C ON
ku ji</w>
y omi
ordin arily</w>
exhibi tions</w>
HA T</w>
prof itable</w>
invest ments</w>
posse ssion</w>
cab in</w>
ri cher</w>
pat ent</w>
fi ghter</w>
cont acts</w>
70 s</w>
long- distance</w>
dete cted</w>
Person al</w>
Coun cil</w>
blog .
In dians</w>
W BC</w>
mang o</w>
Hear ing</w>
Sof t
Ven ice</w>
gard ening</w>
men tioning</w>
Hello ~</w>
second- hand</w>
snee zing</w>
Top ic</w>
A omori</w>
\/\/ goo.
spectac ular</w>
Mick ey</w>
pro crastin
\/\/goo. gl\/
p f
G M
f th</w>
in tr
pl ed</w>
ou ting</w>
bu re
G A</w>
in ity</w>
S ite</w>
sa uc
po les</w>
p als</w>
gg ers</w>
war n</w>
Th ere
To chi
practi sing</w>
inv a
arri age</w>
st ling</w>
Fin ance</w>
sh orts</w>
environ ment
Fr ank
draw s</w>
gra ders</w>
N AR
b ond</w>
con dom
Y ellow</w>
tter ing</w>
M J</w>
summ er
wiki /
ne .jp\/
arrang ing</w>
198 5</w>
exten sion</w>
Tsu yu</w>
requ esting</w>
aller gies</w>
,000 ,000</w>
for cing</w>
have \/
psycho logist</w>
hori zon</w>
Sou theast</w>
compo ser</w>
gest ure</w>
devast ated</w>
Lan ka</w>
enterpri se</w>
subur bs</w>
Toshi ba</w>
proof read</w>
smart phone</w>
Lun ar</w>
certain ty</w>
compati ble</w>
authen tic</w>
dia betes</w>
neces sities</w>
Like wise</w>
Dig ital</w>
Polic y</w>
8 7
● </w>
F le
h it
S la
\/ i</w>
: 0</w>
F ool</w>
E mb
ti ble</w>
li est</w>
a ki
tre ss</w>
t les</w>
surpri ses</w>
Sh in</w>
cap tions</w>
att ach
y ness</w>
N ear</w>
o ily</w>
her bs</w>
rec ycle</w>
z aki</w>
N on-
Har u
sea side</w>
Mi ku</w>
ga tive</w>
mat su</w>
oni to</w>
Si ster</w>
bru shed</w>
sa usage</w>
To fu</w>
cur sor</w>
rac ial</w>
r enting</w>
Regar dless</w>
out fits</w>
Ed 6
Ex plain</w>
3\/ 11</w>
compli ments</w>
cal ender</w>
gentle men</w>
cou pon</w>
diss ol
Kaz u
distinc tive</w>
brac kets</w>
birth days</w>
info /
horiz ons</w>
mon etary</w>
peti tion</w>
hon esty</w>
run -on</w>
Four th</w>
Cath olic</w>
DP J</w>
Mathema tics</w>
Hime ji</w>
Cin derella</w>
Labor atory</w>
slipper y</w>
incenti ves</w>
S c
. in
' that</w>
' you</w>
un d</w>
st are</w>
on ..</w>
par as
co ff
s able</w>
d ded</w>
Ch an</w>
x x</w>
ch eat</w>
hu an</w>
C ere
gn e</w>
P R</w>
ous y</w>
ac qui
temp tation</w>
I sl
reli ability</w>
De fin
C ats</w>
fla m
Shi mo
Mi ami</w>
5 ,000</w>
G rap
scre ening</w>
Col umb
ser vers</w>
Ex cell
tat ors</w>
' nt</w>
fo li
Bas ketball</w>
Bas ic</w>
V ER</w>
de sks</w>
sugg esting</w>
Sam sung</w>
ob jectives</w>
rop er</w>
disgu sted</w>
El derly</w>
lef t-
in habit
rr rr
v agu
barri ers</w>
Camer on</w>
BI G</w>
stre tching</w>
*-*-*-*- *-*-*-*-
master piece</w>
wha t
Cent re</w>
exclu sive</w>
dub bed</w>
mess enger</w>
zo diac</w>
fri ghtening</w>
symp tom</w>
h jong</w>
Vi enna</w>
slog an</w>
delight ful</w>
eu thanasia</w>
org/ wiki/
- -
t v
が </w>
th u
S ic
be th</w>
K ir
el se
ad es</w>
E qu
mon ks</w>
A A</w>
ge ar</w>
. =</w>
gi ble</w>
ari ans</w>
ro c
clu b
per sever
op h
B ack
f lic
G B</w>
ac knowledge</w>
Sa ve</w>
Loc al</w>
tou ches</w>
draw er</w>
hi ko</w>
far ther</w>
Ho ly</w>
Hir o</w>
anno y</w>
jud ging</w>
k a-
neighb our
post graduate</w>
dir t</w>
Pu tting</w>
Ton y</w>
pass ages</w>
pri zes</w>
y uku</w>
Af gh
free ze</w>
cli cked</w>
Mac Book</w>
Che mistry</w>
arrang ements</w>
awar ded</w>
harv ested</w>
T ION</w>
emphasi zed</w>
about \/
Adv anced</w>
worth less</w>
Camer a</w>
Nu mber</w>
gest ures</w>
ac knowled
prescri ption</w>
VO A</w>
re fined</w>
wei ghed</w>
mel ancho
sk unk
forbi dden</w>
tutor ing</w>
infini tive</w>
- or-</w>
238- 240</w>
W HAT</w>
Tochi gi</w>
Z o
D a</w>
' on</w>
ab a</w>
G as
A me
hi ke</w>
st ag
ev ent
M ars</w>
pr ou
wor ms</w>
E ver
tr ace</w>
v ine</w>
po t
v ani
H D</w>
car ni
tom b</w>
re started</w>
D am
ing \/</w>
t win
C V</w>
thr op
et ro
C are
ach in
cha sed</w>
ar cha
plac ing</w>
Hi ga
help less</w>
C O</w>
, 2009</w>
list ens</w>
medic ation</w>
ju ven
radi us</w>
Di sa
day \/
ster ies</w>
Fe b
sty list</w>
Ni shi
P ay
Gu ang
snow fall</w>
Le on
ri sen</w>
come dies</w>
AT A</w>
embar as
secon d
sing le-
alu m
note books</w>
tun nel</w>
main tained</w>
bri ghter</w>
assu mption</w>
stuff y</w>
distri cts</w>
sna kes</w>
restri ctions</w>
US HI</w>
domin ant</w>
dyna sty</w>
recru it</w>
ero om</w>
// en.wikipedia.
Gun ma</w>
wa sher</w>
Memor y</w>
X- ray</w>
dur ation</w>
HD D</w>
syll able</w>
um -cooled</w>
distinc tion</w>
pe ppers</w>
L FR</w>
bu mped</w>
obli ged</w>
Sty le</w>
dispo sal</w>
squ irre
infin ite</w>
yab usa</w>
Sara h</w>
eyebr ows</w>
tatt oos</w>
critic al-
To toro</w>
competit ors</w>
cat erpill
chemic als</w>
Ⅱ </w>
O '
♡ </w>
h t</w>
A th
er d</w>
k on</w>
A so</w>
C as
ng e</w>
te as
de la
be ard</w>
r fi
I ni
F ace</w>
S wee
se ated</w>
A long</w>
sin ess</w>
C anc
\/\/ \/</w>
Wh ere
I E</w>
Li ver
me ~</w>
deli ci
as set</w>
loc ker</w>
trans form</w>
ca sting</w>
M ount</w>
grand children</w>
Mo stly</w>
br ut
r ink</w>
M AN
bal d</w>
nega tively</w>
text -
ssion al</w>
1 .html</w>
time ..</w>
bow ls</w>
mel ons</w>
Yu an</w>
pro verbs</w>
ink aku
cl arity</w>
ex- girlfriend</w>
attemp ted</w>
Tsu ki
v enture</w>
Ten nis</w>
sta mps</w>
distur bed</w>
9 99</w>
E mma</w>
wrest ler</w>
Par agu
thought ful</w>
negoti ate</w>
L ANG
Hai ku</w>
Lea ve</w>
demonstr ate</w>
ice- cream</w>
refu ge
harmon ious</w>
tis sues</w>
t eller</w>
ins ane</w>
compar atively</w>
Fa shion</w>
Ju stin</w>
homes ick</w>
avoca do</w>
Egyp tian</w>
manus cript</w>
promin ent</w>
\/\/www. nicovideo
//en.wikipedia. org/wiki/
c c
W R
1 _
A wa
N ur
st un
ma -
su le</w>
con do</w>
le \/
on i</w>
ta i</w>
. But</w>
in go</w>
b our</w>
the dr
ss y</w>
D ome</w>
H and
A 4</w>
5 4</w>
8 6</w>
coun ters</w>
fu ck</w>
u sion</w>
bas es</w>
re me
vari ed</w>
m ics</w>
aw n</w>
atten de
men us</w>
fe ared</w>
in ting</w>
Pro te
compe t
De ci
glo be</w>
hor n</w>
be ats</w>
young sters</w>
po sters</w>
part -
b y-
Tr ou
M ON
sp ouse</w>
hu gging</w>
marri ages</w>
on wards</w>
zu mi</w>
t arily</w>
le tte</w>
jun gle</w>
He ll</w>
Hawai ian</w>
decreas es</w>
quo tations</w>
lun g</w>
3. 11</w>
that \/
ly ric</w>
g arian</w>
Matsu moto</w>
demon stration</w>
three- year-old</w>
J ason</w>
wr apping</w>
UT F
geo graph
oy sters</w>
jud gement</w>
pup il</w>
li fted</w>
con cei
.edu .sg/
chee se
featur ing</w>
mol ten</w>
Cour se</w>
rea dily</w>
un bear
iPhone 4</w>
Av ril</w>
pessi mistic</w>
occurr ence</w>
Lin ux</w>
witne ssed</w>
Atom ic</w>
◇ </w>
② </w>
S -
P .</w>
an ing</w>
ti l
in an</w>
s have</w>
m ap
pe st</w>
it is</w>
tr e</w>
M es
mon d</w>
bu sh</w>
min t</w>
wee ds</w>
* 1</w>
mar u</w>
car d
in duc
Ma x</w>
int -
ne tic</w>
Se e
un usually</w>
ba i</w>
pro test</w>
ti zed</w>
ic ill
c ater</w>
in line</w>
Mo z
E M</w>
vir tually</w>
seri al</w>
lic op
swe pt</w>
le dge</w>
bur d
Po ssi
Po d
bro iled</w>
spe cts</w>
Ra in
18 0</w>
TE N
Si gh</w>
sh ells</w>
ca ution</w>
10 km</w>
L AN</w>
S UN
Mus ical</w>
be lls</w>
dol s</w>
Tur n</w>
recover ing</w>
Swi ss</w>
Her oes</w>
I zu</w>
Ken ji</w>
Mil k</w>
Bur ger</w>
ty po</w>
wrest ling</w>
PO P</w>
L DP</w>
replac ing</w>
\\\\ \\\\
enterpri ses</w>
Sin cerely</w>
sne akers</w>
ba sil</w>
commodi ties</w>
Na deshiko</w>
Man chester</w>
Fig ure</w>
b onito</w>
imp roper</w>
Ha yabusa</w>
t s
A o
y _
U -
q ing</w>
om s</w>
ca me
ol ds</w>
D ol
tu m</w>
co di
ste ful</w>
ar row</w>
tra its</w>
htt ps</w>
Re gi
govern or</w>
up side</w>
cli ps</w>
after -
te ens</w>
mom ent
her d</w>
co her
t s\/
cha os</w>
se da</w>
ssi vely</w>
unci ation</w>
stic king</w>
den i
gui des</w>
Gu ys</w>
199 4</w>
G RE
well- being</w>
appear ances</w>
modi fying</w>
symbo li
pit cher</w>
sen sation</w>
carri ers</w>
F arewell</w>
LO ST</w>
Boo k
di ary
o logist</w>
hh hh</w>
busi est</w>
ballo ons</w>
bi ased</w>
fai thful</w>
sa usages</w>
dess erts</w>
billi ards</w>
Es say</w>
Sim on</w>
STE P</w>
casin o</w>
disc ounted</w>
lett uce</w>
m acker
Absolu tely</w>
bever ages</w>
condom ini
o x
0 4
5 6
ㅜ </w>
｀ </w>
B and</w>
L oo
C ab
' have</w>
U ra
n ag
f ty</w>
sp ice</w>
gra ves</w>
mar sh
pic ks</w>
fl uc
ti les</w>
G S</w>
opp ings</w>
Ma in</w>
ex ited</w>
bro ch
l eng
sh are
tr ous
nee dy</w>
20 30</w>
sleep iness</w>
fic tional</w>
ri ka</w>
An im
im ing</w>
medi tation</w>
terri fic</w>
wa s\/
mat ched</w>
whi sky</w>
fra me
Ro om</w>
R yu
doub ted</w>
Ri k
snow man</w>
bra tions</w>
cru shed</w>
Pre viously</w>
ES E</w>
ign oring</w>
co ast
na vy</w>
With in</w>
Be eth
four teen</w>
la yers</w>
h mmm</w>
:30 AM</w>
m andarin</w>
back pack</w>
sm alle
2011 .
flexi bility</w>
Mari a</w>
quarre led</w>
persu aded</w>
worl ds</w>
sent ence
conve y
gene tically</w>
re processing</w>
Out side</w>
bb c
Ber lin</w>
i zakaya</w>
car ame
Break fast</w>
ham ster</w>
congrat ulate</w>
Organi zation</w>
virtu e</w>
atten dants</w>
ba sement</w>
sister -in-law</w>
air ports</w>
Nipp on</w>
protag onist</w>
ap pointments</w>
exper tise</w>
sht ml</w>
un avoid
smalle st</w>
T T
8 9
j er
en li
W ow
N ap
ab un
for -
par am</w>
bo k</w>
ho s
sa tions</w>
ga e</w>
sk ate</w>
m any
m atur
fi res</w>
I gn
Fr u
le um</w>
cent ered</w>
X P</w>
= P</w>
spon ge</w>
consi sting</w>
C air
her \/
Bo ss</w>
forei gn
na me=</w>
work out</w>
par tial</w>
dar ts</w>
dem on</w>
30 ,000</w>
adver se</w>
progre ssing</w>
stro ll</w>
bl ond</w>
cru ise</w>
Gr an
S EN
Co st
Hon ey</w>
M AN</w>
ap parent</w>
N atsu
Gol f</w>
semin ars</w>
lan es</w>
Or din
prefer ences</w>
U mmm</w>
cor rid
E asy</w>
doub tedly</w>
cent ric</w>
HA VE</w>
No. 2</w>
cock tail</w>
article s/
mang as</w>
modi fies</w>
Ori gami</w>
dea f</w>
say ings</w>
med als</w>
accor dance</w>
e mailed</w>
Plan ning</w>
rewar ding</w>
ju ggling</w>
Touri sm</w>
Smo king</w>
sarca stic</w>
Nep al</w>
calcu lation</w>
Chine se-
mat ernity</w>
wrink les</w>
Admini stration</w>
Chap ter</w>
0 2
E g
8 6
E D
' at</w>
V an</w>
k it</w>
si es</w>
j p</w>
as p
vi g
ang ar
F ul
he mi
ti de</w>
pe el</w>
co con
ow ning</w>
mu g</w>
ic ec
gr ace</w>
no ble</w>
are job</w>
R un</w>
out look</w>
V ill
20 -
pi ssed</w>
t as
tr ap</w>
Y ang</w>
Hi ~</w>
J P</w>
O den</w>
10 :
Mon days</w>
ru shing</w>
Di et</w>
sp ace
individu ally</w>
trans lat
ver ti
respe cts</w>
ma su</w>
shou ld
ban e</w>
K AT
sun glasses</w>
head aches</w>
fro ze</w>
r yu</w>
speciali sts</w>
inter nation
sen sor</w>
P RO
ya hoo
fu ture
Forei gners</w>
Medic ine</w>
exhi bited</w>
Y UK
cic ada</w>
ki stan</w>
even ings</w>
Proble ms</w>
sev ent
g yoza</w>
Thr oughout</w>
W ILL</w>
Dau ghter</w>
Shi koku</w>
sta mina</w>
Prov ince</w>
Liver pool</w>
Beeth oven</w>
P M
F Y
S om
th m</w>
an ch
P it
sa x
' as</w>
fr an
in fr
ter y</w>
ff i
per m</w>
tic on</w>
lea king</w>
so fter</w>
ga -
ab used</w>
t ated</w>
ti ans</w>
F u</w>
car ef
Al ready</w>
sur ve
sle eve</w>
plan ting</w>
ome let</w>
C R</w>
con sent</w>
9 7</w>
No v
Sh ort
vari ations</w>
up per
C P</w>
st ants</w>
N ick</w>
present ing</w>
twi sted</w>
11 :
perform er</w>
sh oud</w>
disc lose</w>
cre ator</w>
Chi </w>
ne ath</w>
moder ni
back ache</w>
Ri der</w>
A wards</w>
Tra de</w>
cin o</w>
hesit ating</w>
50 ,000</w>
Wa iting</w>
e tte</w>
19 70</w>
198 4</w>
whi sper
lou der</w>
lun ches</w>
Lit er
2. 5</w>
U. S
fortun e-
Res ort</w>
Arab ia</w>
Ani mation</w>
kar u</w>
confe ssed</w>
depar ted</w>
cau tious</w>
frea k</w>
v icious</w>
handic apped</w>
.net \/
right -
subur b</w>
bor der-
wheel chair</w>
fell ows</w>
easy going</w>
prof icient</w>
ine fficient</w>
icill in</w>
he licop
u i
S A
4 3
0 -
G E
・ I</w>
L ic
ic -
* It</w>
B ar</w>
es is</w>
' My</w>
A way</w>
bu ds</w>
dr un
ep ic
fe ine</w>
ear ing</w>
S hou
to shi
dr op
Ma i</w>
bl ur
new er</w>
E pi
p unch</w>
over ly</w>
al together</w>
ac ker</w>
cha ins</w>
Com mer
su ka</w>
spon s
Mon tre
ex pose</w>
hy per
Oc ca
H ana</w>
tran scri
in spi
cur tains</w>
Di strict</w>
B OR
survi v
agre es</w>
Z hang</w>
UR A</w>
st rained</w>
bud dy</w>
transl ates</w>
to- face</w>
explo de</w>
br and-
CE T
Ph D</w>
Diff erence</w>
defini tions</w>
listen ers</w>
hop eless</w>
the\/ my</w>
inter rupt</w>
habit u
Ju lia</w>
exagger ation</w>
conve ys</w>
Hei an</w>
al ternatively</w>
.co .jp\/</w>
HEL LO</w>
Ef fec
dis appearing</w>
ignor ant</w>
expan ded</w>
web- site</w>
Su zuki</w>
drow sy</w>
revolu tionary</w>
Show a</w>
Fin nish</w>
chair man</w>
scand al</w>
1Q 84</w>
Sic huan</w>
Paragu ay</w>
z y
d '
I O
人 </w>
4 /
H o</w>
M ing</w>
K ri
ma th
ca su
t ar</w>
O mo
mo le
C ard</w>
do z
do s</w>
co a</w>
k age</w>
lea ked</w>
tu mb
ma sc
G ei
i ans</w>
mm ers</w>
vi br
read ings</w>
gn s</w>
Un i</w>
C T</w>
No te
deci sive</w>
rec ital</w>
Hi ll</w>
s ick
high light</w>
cli ff</w>
aw oke</w>
qui site</w>
im er</w>
por tal
travel er</w>
t ator</w>
fla kes</w>
bl ues</w>
ques tioned</w>
dar ker</w>
laugh s</w>
col oni
bit es</w>
ge ek</w>
fo ster</w>
Spe ak</w>
cr acked</w>
f ade</w>
K now
care er-
U gly</w>
ation -
accoun tant</w>
represent ing</w>
treas ures</w>
2- 3</w>
opti mi
Hea vy</w>
pharm aci
a holic</w>
Yo shin
dom ain</w>
recru it
Aca demic</w>
correspon dence</w>
tal lest</w>
wid th</w>
police men</w>
form ula</w>
Uni versal</w>
Proble m</w>
har bor</w>
Musli m</w>
sympath ize</w>
envi ed</w>
juni ors</w>
Mar keting</w>
Nao to</w>
absur d</w>
hypo thetical</w>
-mo z-
reluc tantly</w>
achin ko</w>
\/\/www.nicovideo .jp\/
c s</w>
or o
v ar
di m</w>
vi vi
lo a
i i</w>
I da
s age</w>
h all
gr in
Be er</w>
F 1</w>
comm uni
ear ne
comp any
ani mes</w>
L ef
ali gn</w>
win es</w>
D ea
da ma</w>
Ch eng
bir thr
re infor
enti a</w>
conver ted</w>
Wi ld</w>
ci se</w>
conf uses</w>
Bri s
ate \/
3 ,000</w>
p unk</w>
Bi o
H AR
yu mi</w>
well ..</w>
199 3</w>
affec ting</w>
anno ys</w>
Con tro
bu ri</w>
re build</w>
time .
AM E</w>
C AN</w>
Do gs</w>
a- san</w>
co .jp\/
architec tural</w>
shr inking</w>
attemp ts</w>
jun ctive</w>
zh en</w>
Engine ers</w>
E ric</w>
coun cil</w>
Malay sian</w>
execu ted</w>
domin al</w>
struc tured</w>
eli minated</w>
air craft</w>
deal er</w>
- ups</w>
could 't</w>
dolph in</w>
po lar</w>
ma scul
ya kiniku</w>
Dep ending</w>
Han shin</w>
dipl oma</w>
brac ele
bi scu
stereo types</w>
Web site</w>
sur geon</w>
pres sures</w>
strai ght
fra ud</w>
Nan jing</w>
Mid- Autumn</w>
mud dy</w>
lefto vers</w>
renew ed</w>
margin -
Wak ayama</w>
imp lications</w>
inter nationally</w>
Wa seda</w>
Montre al</w>
I V
0 3
K E
F E
s =
a _
h m</w>
oo h</w>
ac r
a un
us \/
z he
sp er</w>
ver b
- year</w>
M ine</w>
t \/</w>
ang les</w>
ky ard</w>
200 7
An dre
Fr ank</w>
ob sc
form ers</w>
ad di
ste m</w>
Wi fe</w>
B ird</w>
w ood
cor ners</w>
A sk</w>
ut most</w>
bar king</w>
L ong
attrac ting</w>
stic ker</w>
inci </w>
appro ve</w>
e els</w>
Col a</w>
scre en
AR S</w>
Gu y</w>
bit ch</w>
adverti se</w>
blo gging</w>
Co de</w>
per forms</w>
sal sa</w>
pur suit</w>
mpi res</w>
now ..</w>
Emp ire</w>
al ysis</w>
ex tract</w>
2009 \/0
co li</w>
sc ape</w>
Cap ital</w>
superi ors</w>
ra ises</w>
par tially</w>
O dai
D ancing</w>
stre tched</w>
calcul ated</w>
Gradu ally</w>
H angzhou</w>
Cli ck</w>
Jen ny</w>
inti mate</w>
cross -
nas tics</w>
Cal gary</w>
kid n
Opp onents</w>
diamon d</w>
interrup ted</w>
trans fered</w>
te dious</w>
Miya jima</w>
fear ful</w>
arca de</w>
ob iles</w>
cap itals</w>
presti gious</w>
S pending</w>
admini strative</w>
Mess age</w>
pharmaceu tical</w>
hom eroom</w>
B y
U t
S or
al t</w>
k ur
R ap
per ation</w>
lo ans</w>
la kes</w>
6 00
m ite</w>
5 2</w>
K aga
ra u</w>
ch ari
sta tic</w>
5 6</w>
B ai
pi tiful</w>
ok an</w>
sc ru
B T</w>
8 7</w>
foll ow
T ask</w>
e- books</w>
Li u</w>
sun e</w>
di eting</w>
re store</w>
suff er
win ners</w>
a waiting</w>
ut ter
11 pm</w>
refer ences</w>
d ented</w>
sub stitu
ric al</w>
ric e-
oooo o</w>
Pr o</w>
Pl ant</w>
G race</w>
F lower</w>
ri dden</w>
illu sion</w>
li fts</w>
**** ***</w>
jump s</w>
Re actors</w>
ju icy</w>
analy zed</w>
discri min
tori ous</w>
deman ded</w>
expl oring</w>
Hun ter</w>
Mil ky</w>
Au dio</w>
organiz er</w>
essen tially</w>
Tit les</w>
execu tives</w>
Thank fully</w>
Speci fically</w>
Rel a
scholar ships</w>
197 9</w>
floo ds</w>
Consi der</w>
Per fume</w>
pri orities</w>
postp one</w>
en abled</w>
anticip ated</w>
HA HA</w>
V arious</w>
Ishi kawa</w>
Phys ical</w>
Pra gue</w>
R evolution</w>
D addy</w>
wei ghs</w>
petro l</w>
rewar ded</w>
Scienti fic</w>
O scar</w>
lanter n</w>
Doc ument</w>
spell ings</w>
adole sc
Sib eria</w>
mi schi
Ad mittedly</w>
dread ful</w>
spec tators</w>
K hos
\/\/www.nicovideo.jp\/ watch\/
Khos rau</w>
F o
n h
W E
I Z
I d</w>
M en
li v
' was</w>
the a
T as
S po
ff le</w>
T our</w>
ro id</w>
co tt
ss a</w>
. There</w>
au to</w>
sk ep
versi de</w>
D D</w>
' How</w>
man -
b ows</w>
w are
sta ke</w>
mi ssi
l ining</w>
recei ves</w>
disc re
impre ss</w>
be aring</w>
origin s</w>
bur gh</w>
examin er</w>
si gni
D ata</w>
mach in
en dang
di mini
9 pm</w>
th ai</w>
wel coming</w>
lat in</w>
i den
Pr of</w>
F err
bra ke</w>
one \/
head phones</w>
ko to</w>
L uck</w>
summ it</w>
M ori</w>
multi p
.. ..
haha haha</w>
equip ments</w>
Pa ti
Ha mbur
P unc
hard working</w>
syn the
dead ly</w>
contrac ts</w>
contrac ted</w>
OK .</w>
CP A</w>
E mily</w>
Jour ney</w>
here ..</w>
thor ough</w>
nuclear -
oy ster</w>
GO D</w>
commit ment</w>
lunch time</w>
Jen ni
conson ants</w>
pois oning</w>
bang s</w>
Summ ary</w>
vita mins</w>
exce ed</w>
N ASA</w>
tur tles</w>
-moz- border-
N I
C L
H .</w>
→ I</w>
R ou
p h</w>
T ro
te -
you ..</w>
the ir
ye on</w>
A i</w>
W ol
tic a</w>
m our
D est
le s
ge ant</w>
Y ep</w>
mer ry</w>
wan der</w>
ar u</w>
\/\/ j
C oll
ho sts</w>
co des</w>
comple tion</w>
ima ge
econom ies</w>
E mail</w>
fil med</w>
provi der</w>
iP ad
oper ates</w>
scen ic</w>
sh owers</w>
da mp</w>
back up</w>
mini sters</w>
D own
D anish</w>
bor ders</w>
de st
1 40</w>
am ura</w>
aca use</w>
OR I</w>
class rooms</w>
resi stant</w>
neighb our</w>
bla de</w>
un g-
100 th</w>
trans formed</w>
wi sely</w>
wai i</w>
Ev ening</w>
ali stic</w>
A ka
Pri vacy</w>
mathema tical</w>
R yo</w>
com unic
repa iring</w>
check -up</w>
Mat t</w>
Dis covery</w>
gun ate</w>
nuclear .org/
ba za
Def ense</w>
cre epy</w>
master pieces</w>
conta mination</w>
==== ===</w>
To kyo
counsel ing</w>
UD ON</w>
cata strophe</w>
\/ iframe</w>
up grading</w>
Indu stri
YO UR</w>
Sear ch</w>
aer ob
mur derer</w>
rehabili tation</w>
knowledge able</w>
Pho enix</w>
\/\/twitter .com\/
contex ts</w>
PLE ASE</w>
no dded</w>
condomini um</w>
bbc .co.uk
emo ticon</w>
under neath</w>
Bris bane</w>
Jenni fer</w>
ō </w>
7 6
y ar
u a</w>
re l</w>
y an</w>
A my</w>
as th
mi le
L ate</w>
tic -
K ey</w>
inter ro
dr ying</w>
ma s
es tion
ke st</w>
. 3</w>
ell ow
ch ew</w>
boo t</w>
car p
coun tri
ty \/
brea ds</w>
over sleep</w>
con temp
Inter est
loc als</w>
sh ed
air y</w>
in di
H achi
un related</w>
================ ========
sp illed</w>
over weight</w>
de scen
can \/
No tice</w>
fra mes</w>
Pr op
itali an</w>
shir o</w>
stro kes</w>
un limited</w>
Com mon</w>
sub jective</w>
dor i</w>
fir st
RE E</w>
predic tion</w>
O ption</w>
rob bed</w>
g aller
Fl owers</w>
kk k</w>
n. d</w>
lo yal</w>
Smi le</w>
toler ant</w>
M ANG
comp onent</w>
Ele mentary</w>
bat ter</w>
nor theast</w>
bub bles</w>
chee ks</w>
facili tate</w>
subscri be</w>
P atri
dream t</w>
Isla mic</w>
P ower
Yang yang</w>
qu icker</w>
UF O</w>
Visi ting</w>
ope dia</w>
PD F</w>
pengu ins</w>
In cheon</w>
Sit uation</w>
pine apple</w>
instal lation</w>
nus .edu.sg/
assi stants</w>
uc cino</w>
Ida ho</w>
birthr ate</w>
O o
^ .
f v
y l</w>
n es</w>
P an</w>
a do</w>
b ore</w>
la h</w>
7 am</w>
ac ul
G ul
H il
C lear
bi an</w>
8 00
pa yed</w>
F am
cur ly</w>
T et
ri pe</w>
soci able</w>
sk ater</w>
wea ther
cha mp
Ex pl
comple ting</w>
K Y</w>
bri </w>
b ery</w>
Sp a</w>
G F</w>
mini mal</w>
stin ct</w>
Pr ay</w>
Fi ji</w>
kit ty</w>
I ON
bur gers</w>
Gr ou
Lo vely</w>
L CD</w>
gri ll</w>
bu yer</w>
mur m
Ste ven</w>
haha ha
nee dle</w>
fol ded</w>
19 45</w>
Br ow
Hak ata</w>
comprehen sive</w>
re plying</w>
Matsu ri</w>
Con tent</w>
abbrevi ated</w>
Re ason</w>
Mom o</w>
pre valent</w>
av atar</w>
illu minated</w>
Cer ti
Simp ly</w>
Progra m
Grand ma</w>
Scot tish</w>
the me-
threat ening</w>
Ak ira</w>
don uts</w>
.net /
si mulation</w>
Mongo lia</w>
Mic hel</w>
-F i</w>
ol ulu</w>
emb assy</w>
s- in-law</w>
cata stroph
FRIEN DS</w>
ph ysi
my steries</w>
Where as</w>
thedr al</w>
face- to-face</w>
ab dominal</w>
bac kyard</w>
cl opedia</w>
9 8
A E
A z
G I</w>
S ti
K re
D un
- day</w>
it ly</w>
su re
al lo
mo ld</w>
mo s</w>
us er
An ci
do g
d ge
pa mp
it al
U sed</w>
sur ing</w>
str at
duc ks</w>
bro th</w>
ing ^^</w>
pi ll</w>
mean while</w>
he ck</w>
clo ths</w>
I chi
ac cent
comp act</w>
rep ay</w>
s *</w>
P aper</w>
ac up
19 0
tu tors</w>
Fin d</w>
serv ants</w>
swe ated</w>
eri ously</w>
p opped</w>
re members</w>
cal med</w>
wan dered</w>
contro ls</w>
ki ssing</w>
//www. gen
aw fully</w>
sub jec
li hood</w>
12 -
Mi ki</w>
let in</w>
con vic
on ships</w>
sh allow</w>
Bu sh</w>
Tra ffic</w>
100 ,000</w>
dr yer</w>
summ ers</w>
OM E</w>
imp lying</w>
XX XX
1 px</w>
as px</w>
Ty pic
dis appears</w>
Ser ies</w>
schol ars</w>
tra ditionally</w>
refriger ators</w>
v es\/
consist ently</w>
Mom o
Fre e
Nic o</w>
con gratulations</w>
F ox</w>
wit ness</w>
Chr ome</w>
Dep p</w>
ani stan</w>
re sorts</w>
Fac tory</w>
nin th</w>
Ef fect</w>
G FR</w>
d addy</w>
S cript</w>
Yama guchi</w>
Ul ti
open- minded</w>
supersti tion</w>
horiz on
gli mp
fisher man</w>
Acci dent</w>
moi st
pre fers</w>
li ttle
chur ches</w>
Architec ture</w>
M arriage</w>
Profe ssional</w>
Hi karu</w>
baza ar</w>
U U
B I</w>
J on
0 g</w>
ti a</w>
wa -
G ay</w>
di p</w>
ma de
\/ in</w>
\/ that</w>
mp y</w>
S et</w>
hi to</w>
a ks</w>
de bu
sti r</w>
in take</w>
wa ved</w>
in au
C oc
* \/</w>
tur b
fa x</w>
S car
exc ess</w>
ti ve
bl on
__ _
Re li
tr um</w>
toge ther
pre view</w>
Li ly</w>
ing ~</w>
ob serv
ne c
C lar
disc </w>
y ama
ro tation</w>
sl ur
tru st
fl ow
Me disa
Fe der
F F</w>
mini ature</w>
mini -
AN T</w>
exp ired</w>
B ath</w>
tow els</w>
ri tual</w>
re vision</w>
La ura</w>
dru mmer</w>
Gi ving</w>
neighb ours</w>
oppo t
100 00</w>
Ge o
aff lu
aff ir
associ ates</w>
Lo tte</w>
insi sts</w>
consul tation</w>
star bucks</w>
brow sed</w>
Ang els</w>
jac kets</w>
schol ar</w>
Sta ying</w>
Sub way</w>
poten tially</w>
Mas a</w>
in tui
vit ality</w>
lei surely</w>
regre tful</w>
eco logical</w>
Y asu
min or-
inst alling</w>
egg plants</w>
t apes</w>
na sium</w>
Nik ko</w>
collabor ation</w>
presu me</w>
Scienti sts</w>
- fi</w>
G yoza</w>
dec eased</w>
Musli ms</w>
rus sian</w>
confec tionery</w>
Stan ford</w>
Universi ties</w>
examin ees</w>
Wil pert</w>
vagu ely</w>
prou dly</w>
unavoid able</w>
V inci</w>
endang ered</w>
theme- font</w>
Hon olulu</w>
acup unc
Medisa ve</w>
ま た
c -
J er
' n</w>
an \/
n \/
tr ed</w>
F ol
r he
he ver</w>
inter f
gi -
s lang
un ite</w>
bi ble</w>
H old</w>
c row</w>
ari a</w>
ing .</w>
R oll
me et
ta k
C K</w>
i on</w>
in ations</w>
Ch ang</w>
hun ter</w>
or der
ju do</w>
suff ers</w>
mat ching</w>
De si
ER E</w>
acti vi
re consider</w>
at su</w>
supp lied</w>
al titude</w>
Sy n
Fur ther</w>
pleas antly</w>
hol ders</w>
humi li
citiz en
all y\/
shar k</w>
nick y</w>
rou tes</w>
annu ally</w>
S AT</w>
deliver ing</w>
AG E</w>
lean ed</w>
domin ated</w>
un conscious</w>
illustr ates</w>
Sa shimi</w>
sla ves</w>
pop corn</w>
un defined</w>
aaaa aaaa
soy bean</w>
mani pul
thi eves</w>
======================================== ==</w>
HA PP
sli ppers</w>
impo sed</w>
Prepar ing</w>
ne atly</w>
Eli za
Les son</w>
motor cycles</w>
cr abs</w>
lap tops</w>
hl =
A kita</w>
WI TH</w>
Fried land</w>
Moz art</w>
carame l</w>
sax ophone</w>
Occa sionally</w>
doz ens</w>
Interest ingly</w>
i v
u u
B M
■ ■
B .</w>
re i
T an</w>
the y
m so</w>
' this</w>
in to
ci an</w>
l \/
ad ers</w>
A qu
gh ty</w>
comp as
ch al
ni g</w>
E mer
ci ls</w>
9 3</w>
ef l</w>
H S</w>
er u</w>
C ele
sin cer
am is</w>
am -
ki es</w>
jec tions</w>
la tion
man e</w>
vo ted</w>
g ori
co ck</w>
I phone</w>
au dition</w>
oo t</w>
Fri days</w>
play nex
4 000</w>
Ju do</w>
super -
deta il
compe lled</w>
zz a</w>
down turn</w>
out fit</w>
s .html</w>
fin ger
uni v</w>
o v</w>
ear phones</w>
ko shi</w>
P RE
re mark</w>
Tra v
bul b</w>
pe aches</w>
Wat er
al ley</w>
11 \/0
OO L</w>
ste aling</w>
acc used</w>
face book
def ence</w>
const rain
ir responsible</w>
gur ation</w>
Asa hi</w>
respec table</w>
sun burn</w>
wiki pedia</w>
heart warming</w>
becu ase</w>
pronoun cing</w>
therap ist</w>
eigh th</w>
fat ty</w>
tan ned</w>
streng ths</w>
ben eath</w>
toler ate</w>
A hh</w>
sl ender</w>
reflec ting</w>
tooth brush</w>
par lor</w>
Ce ll</w>
supple ments</w>
muff ler</w>
p- hop</w>
AW A</w>
b tw</w>
Yan ke
whic h
gramm ar
cr ackers</w>
hibi tion</w>
adv entures</w>
Terri ble</w>
coll age</w>
measure ment</w>
brid ges</w>
Symp hony</w>
cap sule</w>
trous ers</w>
icec ream</w>
Vill age</w>
Ad verti
nuclear.org/ info/
asth ma</w>
W o
T ^
L '
p .</w>
er .
j ar
R ing</w>
re t
oo th</w>
ac use</w>
ra sh</w>
ar do</w>
ag en
la me</w>
g te</w>
M i</w>
il a</w>
D ong</w>
a me</w>
in ge</w>
Be ar</w>
P oc
stor ms</w>
C ell
' Do</w>
mat s</w>
d ences</w>
r u</w>
d ors</w>
li fel
poin ter</w>
M ili
e ach
vac ant</w>
Mo ve</w>
temp o</w>
ga ins</w>
H ang</w>
we ir
ca use
Con tr
view er</w>
Qu ite</w>
no t-
motiv ates</w>
30 s</w>
re trieved</w>
mid st</w>
inst inc
Ro ger</w>
inno c
ON G</w>
emb race</w>
adm ir
par a-
Bu y</w>
indic ating</w>
BB S</w>
ya shi</w>
ag ne</w>
UR E</w>
aff ili
50 s</w>
decl ar
New sp
Pi x
He ad
198 9</w>
Pa ul
conf erences</w>
conduc ting</w>
l dering</w>
advi sor</w>
consequ ently</w>
p adding</w>
acqu iring</w>
pe dal</w>
kilome ter</w>
Sta dium</w>
puzz les</w>
tac tics</w>
Mas a
unbeliev ably</w>
floo ding</w>
or tho
pay day</w>
che mist</w>
kit tens</w>
me tro</w>
Liber ty</w>
Zh ou</w>
N inja</w>
M etal</w>
accor dingly</w>
//www.n ature
WO W</w>
*_ *</w>
Choo se</w>
Confuci us</w>
Colom bia</w>
Tom o-chan</w>
inhabit ants</w>
attende es</w>
Pron unciation</w>
dem entia</w>
gym nastics</w>
autom obiles</w>
iden tical</w>
app uccino</w>
0 8
3 D
I di
en ch
di ent</w>
b ent</w>
y as
mo h
mi e</w>
ri g
ex ter
hi er
tt a</w>
rec re
r en</w>
pp l</w>
An n</w>
sc ep
sc ra
g ated</w>
ur ine</w>
la in</w>
clo ses</w>
Q ing
ap pen
nu t
Any body</w>
St and</w>
ment -
poli shed</w>
y le</w>
cou d</w>
stri king</w>
choo ses</w>
Y U</w>
bri ck</w>
ex por
lo b
Ju mp</w>
cere br
ge t-
ric ular</w>
15 00</w>
AR T</w>
Fi eld</w>
ti gers</w>
dru g
F OR
good \/
flav our</w>
re construction</w>
re lying</w>
edi ble</w>
ar y.
Ama z
sho gi</w>
j yo</w>
colle ctive</w>
Swi ft</w>
IT Y</w>
Heal th
NE W</w>
king \/
ver anda</w>
Ra dio
Ver y-
article /
subsi di
plu g</w>
acu te</w>
persi st</w>
soooo oo</w>
N eigh
fla ws</w>
Bro thers</w>
In dependence</w>
Uk rain
evacu ated</w>
lo tus</w>
count down</w>
re stored</w>
depic ted</w>
JP Y</w>
mun ici
distr acted</w>
craw l</w>
up loading</w>
B tw</w>
z uka</w>
Taka hashi</w>
eco- friendly</w>
fast- food</w>
fa ther-in-law</w>
navi gation</w>
line- height</w>
O asis</w>
popu lations</w>
bure au
inva sion</w>
acqui sition</w>
skunk works</w>
di um-cooled</w>
lou nge</w>
brut al</w>
stun ned</w>
caf feine</w>
Al zhe
\/\/www.nicovideo.jp\/watch\/ sm
MANG A</w>
in stinct</w>
i g
F O
I P
4 ,
5 7
詞 </w>
T .</w>
J .</w>
on .
a a</w>
K om
e h</w>
Z en</w>
ac or
' for</w>
ar di
L ap
p p</w>
as y
v as
u me
mp ing</w>
se w</w>
in i</w>
pl un
S our
coun tr
ma mm
ww ww
di versi
s oun
wa x</w>
ur u</w>
Be side</w>
P V</w>
bet we
s play</w>
sk ies</w>
pa ths</w>
ac ous
ven s</w>
inc tion</w>
ex emp
E ng</w>
produc ers</w>
In flu
Re turn</w>
stri kes</w>
fil ter</w>
\/\/www. youtube.com\/
D Y</w>
direc tors</w>
g ly
Ar ri
por n</w>
li gh
O reg
confi denti
tu m
//www. i
z ards</w>
prepar es</w>
bri ghtly</w>
C H</w>
bath rooms</w>
S oul</w>
don ald</w>
el bow</w>
NE W
reas oning</w>
Asa da</w>
stimul ating</w>
distur bing</w>
sh inkansen</w>
E VER
up dating</w>
sun burned</w>
k m\/
fami ly-
c lists</w>
e Bay</w>
____ __</w>
ha zard</w>
attribu ted</w>
expan sion</w>
tox ic</w>
vio lation</w>
vio let</w>
presi dential</w>
percei ved</w>
lanter ns</w>
^_ ^*</w>
hard- working</w>
\/ qtlend</w>
spark ling</w>
.as p</w>
high lighted</w>
Jor dan</w>
Ko shien</w>
dischar ged</w>
vani shed</w>
second hand</w>
abun dance</w>
petro leum</w>
Anci ent</w>
Afgh anistan</w>
また は</w>
Eliza beth</w>
Oreg on</w>
V a
0 6
F R
L L
T .
M I
P ay</w>
A sh
ne se</w>
me i
m one</w>
a ..</w>
a ud
ad en</w>
t ad
sp ic
mb a</w>
min o</w>
To ge
vi sed</w>
br on
: 3</w>
any on</w>
be live</w>
C ome
Y S</w>
car p</w>
200 0
int on</w>
A side</w>
ak er</w>
bl in</w>
Th er
M ight</w>
K TV</w>
be gg
li ters</w>
F ried</w>
dra g</w>
the art</w>
ref ere
H ills</w>
fi ssion</w>
gener ates</w>
cha -
C ake</w>
ep s</w>
suc ked</w>
sh ines</w>
v= 5
class ics</w>
Sing ing</w>
c tor</w>
reac tor
The ater</w>
dr astic</w>
12 :
stat e-
stre sses</w>
Re tri
tran qu
con stitu
I Q</w>
TH AN
medi ately</w>
consider ations</w>
thr ough
friend s
col dness</w>
EL L</w>
Go gh</w>
ji ang</w>
pan els</w>
Bu ying</w>
age ous</w>
dir =</w>
can teen</w>
Wat an
**** **</w>
Sun shine</w>
sensi ble</w>
vo cational</w>
volu mes</w>
excep tional</w>
syn tax</w>
m aps</w>
Oh ..</w>
abor tion</w>
mso- font-
the\/ a</w>
Al tern
home towns</w>
Hou sing</w>
of- the-
scrat ched</w>
endi f</w>
W AS</w>
mono ton
ad dressing</w>
GR E</w>
descrip tive</w>
// news.
sculp ture</w>
198 0s</w>
scoo ter</w>
RE ALLY</w>
. blogspot
analo g</w>
tr ucks</w>
Wr ong</w>
hom eland</w>
prison ers</w>
Import ant</w>
l tr</w>
Bru ce</w>
uku lele</w>
unbear able</w>
Sa int-
cocon ut</w>
earne stly</w>
sub junctive</w>
prece dented</w>
Fam ous</w>
blon de</w>
T^ T</w>
mso- para-
+ _
T D
f c
- 0
J o</w>
on o</w>
S ar
ri ly</w>
H us
9 am</w>
ul ts</w>
P ul
ff al
' they</w>
O da
ch up</w>
ag ents</w>
S ound</w>
p imp
so ..</w>
b end</w>
s ought</w>
ni es</w>
tra it</w>
sent ance</w>
B ach</w>
in ds</w>
c ely</w>
ri sed</w>
cu be</w>
ten -
as ons</w>
c c</w>
in different</w>
M is
fi anc
int ent</w>
ve g
kin d
tit le
Au th
inc en
Hi m</w>
si gh
bab y
d ka</w>
b ully</w>
Mi x</w>
n ick</w>
ood les</w>
Con su
Sing le</w>
en ched</w>
Com pare</w>
lo sses</w>
regre tting</w>
rul ed</w>
fin dings</w>
199 2</w>
Spe ed</w>
dom s</w>
meas uring</w>
reci eve</w>
S AM
cap abilities</w>
sensi tivity</w>
manufac ture</w>
carri age</w>
- shaped</w>
qtl frame</w>
Ry an</w>
Cap tain</w>
chap ters</w>
V isa</w>
fli p</w>
Gradu ate</w>
Vol un
tri angle</w>
pa thetic</w>
alo g</w>
par aph
day- off</w>
vul gar</w>
compo sing</w>
exces sively</w>
\/ qtlbar</w>
cation s/
rang ing</w>
z- index</w>
Lou is</w>
Liber al</w>
Isla m</w>
.or .jp\/
as sured</w>
Cau ca
Main ly</w>
colour ful</w>
cra ft
funni est</w>
cheer fully</w>
theore tical</w>
furi ous</w>
disp ute</w>
traine e</w>
hope ful</w>
Cere mony</w>
marsh m
Rik ako</w>
text- align</w>
iPad 2</w>
Cali bri</w>
moist ure</w>
ha tred</w>
E u
C -
g .</w>
R on
f le</w>
k ab
it er</w>
\/ to</w>
ter a</w>
ol a</w>
he at
w rec
sp li
to tal
gi g
P ep
mo tive</w>
A 1</w>
di stor
cu te
boo king</w>
V is
se is
v est</w>
ar med</w>
si ma</w>
ff ic
drin ker</w>
p lo
elec tions</w>
cr own</w>
cr ows</w>
be half</w>
fre e-
S ept</w>
v= X
Me th
ver tical</w>
F IN
spee dy</w>
at ched</w>
super b</w>
D ong
thou se</w>
P ass</w>
av ail
inc ense</w>
rul ing</w>
Ro ll</w>
scre ens</w>
thre ats</w>
book shop</w>
ku j
de served</w>
char ging</w>
u ri</w>
book keeping</w>
time table</w>
time \/
cow ard</w>
er nal</w>
l acked</w>
In surance</w>
198 7</w>
Ke i</w>
determin es</w>
Ser v
ste pping</w>
si ung</w>
in corpor
vill agers</w>
contrac tions</w>
si ghted</w>
susp ici
persu a
imp erial</w>
Ir on</w>
sel lers</w>
- minded</w>
maxi mi
enthusias tically</w>
pro xy
contradic tion</w>
eeee eeee
back pac
coordin ator</w>
Toku shima</w>
Tru th</w>
prosper ous</w>
extrac ted</w>
represent atives</w>
ven dor</w>
ax y</w>
Concer t</w>
Good -bye</w>
Ve ge
Con ference</w>
depri ved</w>
Fla sh</w>
bet rayed</w>
yi eld</w>
Blossom s</w>
Hong kong</w>
admini strator</w>
vor ous</w>
na tive-
syn drome</w>
lad der</w>
pose dly</w>
Ill u
estab lishing</w>
Termin ator</w>
Aff airs</w>
Friend ship</w>
per cus
Ki yomi
Com petition</w>
vi gne</w>
cro codi
un deni
fluc tu
Anim als</w>
+_ +</w>
lib proxy
libproxy 1.
S w
S R
O w
B -
n /
P in
W an
K I</w>
p ou
K or
ha c
K ent
pe as
\/ it</w>
ye ll</w>
sp in</w>
on ous</w>
E no
' We</w>
us able</w>
dr a</w>
sc op
Ch op
r ack</w>
L ack</w>
W ei
sta ir
mm on</w>
rec ent
re stor
ell ers</w>
sur u</w>
t ari
S ki
8 9</w>
de part</w>
ty po
tri gg
bro c
Re gre
tre k
bo ther
min ations</w>
anc e-
publi cation</w>
il t</w>
mus ics</w>
T ang</w>
fl owed</w>
Com ic</w>
v= x
J erry</w>
tri c</w>
ght \/
re d-
Pro cess</w>
view points</w>
work -
E F</w>
govern mental</w>
ju ana</w>
wi ki</w>
. +</w>
progre ssed</w>
12 :30</w>
a vi
releas ing</w>
Si de</w>
N AT
Tai yaki</w>
plan ets</w>
shi pped</w>
back wards</w>
work load</w>
Yu mi</w>
ma iling</w>
AL T</w>
Wat son</w>
K atsu
arch y</w>
ambi tions</w>
U TO</w>
broadca sts</w>
did 't</w>
e mit</w>
24 -
Stu pid</w>
b bon</w>
dete ction</w>
utili zed</w>
Ci vil</w>
Fre sh</w>
emphasi zing</w>
mista ken
I dol</w>
M ulti
acces sed</w>
ON LY</w>
accommo date</w>
evacu ate</w>
Memor ial</w>
//www. world-
st aple</w>
Ger mans</w>
\/ index.html</w>
narr ator</w>
short- term</w>
O zawa</w>
Direc tor</w>
percei ve</w>
py ra
beau tician</w>
nomin ated</w>
doctor al</w>
confron ted</w>
grown -up</w>
Prac tic
ow nership</w>
ra dical</w>
fai thfully</w>
compens ate</w>
Sop hi
prov inces</w>
alum ni</w>
i dols</w>
Cost co</w>
ec centric</w>
spons ored</w>
recruit ment</w>
Ut ada</w>
\/\/j a.
Alzhe imer</w>
Toge ther</w>
mistaken ly</w>
0 5
G w
ar ou
b f</w>
G en</w>
R un
- The</w>
ci </w>
mp h</w>
ter n</w>
e i</w>
li ers</w>
de tri
ep er</w>
. He</w>
wa ving</w>
L ess</w>
7 00
au x
our self</w>
re writing</w>
my \/
Al right</w>
ele g
200 6
ca ster</w>
po sing</w>
vo tes</w>
out si
tic k
tit is</w>
ven tive</w>
si tive</w>
develop ers</w>
sing les</w>
comple x
el lation</w>
TO R
v= q
T ama
ght -
Bo x</w>
Tom mor
terri fied</w>
en d-
con ception</w>
log in</w>
Par ticip
recomm ends</w>
ra ge</w>
10 pm</w>
T ai</w>
won ders</w>
For ce</w>
expe cts</w>
AR Y</w>
hum ani
Pl ace
Le o</w>
ck in</w>
H ina</w>
bott led</w>
S onic</w>
fle a</w>
tiz ens</w>
mer cy</w>
we dne
in sight</w>
advi ser</w>
New s/
rest less</w>
Mal ta</w>
Ba se</w>
kin gly</w>
An drew</w>
car bon
Ama zing</w>
anti bio
mm mmm</w>
******************************** ********
un acceptable</w>
Fa mi
utili ty</w>
evol ved</w>
nutri tious</w>
mon th-
doub tful</w>
comprehen sible</w>
diver t</w>
pick les</w>
Mon ica</w>
Kei o</w>
beauti ful
ra fting</w>
prece ding</w>
mani fe
awa k
cha otic</w>
TO DAY</w>
stereo type</w>
counsel or</w>
batt les</w>
n inja</w>
moon light</w>
Kawa saki</w>
Supp ort</w>
log y/
Yak itori</w>
appla use</w>
persi stent</w>
cran es</w>
\/\/ blog.
Soft bank</w>
attach ment</w>
Excell ent</w>
persever ance</w>
epic enter</w>
thea stern</w>
dest ined</w>
strat eg
Contr ary</w>
a /
si -
ro d</w>
I sa
to a
I \/
se mi
k ud
ol ly</w>
G il
cl an</w>
cl one</w>
m ar</w>
bi king</w>
la y
0 8</w>
Al one</w>
d \/</w>
W is
s als</w>
S af
B ing
ing /
ga ze</w>
stor i
ep ide
ac ies</w>
S R</w>
Ha w
ok o
ori ous</w>
do ck</w>
adv ent
ici ans</w>
co ined</w>
compu ting</w>
19 00</w>
F air</w>
mi ya</w>
ar rest</w>
Bri an</w>
accep ts</w>
~~~~ ~</w>
t z</w>
hor se
disa ster
Qu est</w>
condi tioned</w>
Ex actly</w>
re presentation</w>
Ma sters</w>
Fu ri
k o-
di stress</w>
oooo oo</w>
tar u</w>
chan ted</w>
pen sions</w>
argu es</w>
Don t
compar able</w>
New s
He ad</w>
Cur rent</w>
low ered</w>
night mar
fortun es</w>
Bar ack</w>
A IN</w>
manufactur ed</w>
EC T</w>
Coun tries</w>
abbrevi ations</w>
fat ter</w>
expendi tures</w>
sci ence
sla ve</w>
JAP AN
contro ller</w>
kic king</w>
org\/wiki \/</w>
slu g
diagno sis</w>
in adequate</w>
tsu gu</w>
liber al</w>
psy chi
tox ic
semi- colon</w>
Secre t</w>
ML B</w>
Pap a</w>
fra gments</w>
sound track</w>
In tel
me tropolitan</w>
hydrange a</w>
warri or</w>
copy right</w>
Belar us</w>
bore dom</w>
panic ked</w>
loy alty</w>
ma hjong</w>
else where</w>
K inkaku
Hun garian</w>
dee pest</w>
k angar
SW CR</w>
lea kage</w>
Know ledge</w>
Lef t</w>
Odai ba</w>
-moz-border- radius</w>
feature= fv
glimp se</w>
La vigne</w>
6 4
U P
N in
B re
W ha
L in</w>
B in</w>
B ow
en se
j ir
' one</w>
j ar</w>
li ds</w>
lo l
com ers</w>
pre t
fe e
co s</w>
T est
ab str
E bi
b read
enc lo
wor dy</w>
L ear
st en</w>
U nex
H eat</w>
mor als</w>
\/\/ '
5 9</w>
e ty
. ^^</w>
stu pi
I K</w>
nee ding</w>
Sh on
pro cess
ap pr
ant om</w>
Mar u
de fic
d ared</w>
B B</w>
J im
t ally</w>
Bri t
M IN
por tions</w>
Per u</w>
your selves</w>
super natural</w>
3 50</w>
R ail
La dies</w>
releas es</w>
sun screen</w>
at ories</w>
inv aded</w>
s wore</w>
water ing</w>
inter actions</w>
Or ange</w>
di stances</w>
fol k
cooper ative</w>
Ap r</w>
b and-
ama zon</w>
N aka
Comm uni
do zen</w>
philosop h
dump ed</w>
No bu</w>
ti mid</w>
in tuition</w>
un realistic</w>
AI DS</w>
Dou ble</w>
contradic tory</w>
notic es</w>
sales person</w>
pre cau
sc ales</w>
- hearted</w>
J- pop</w>
lunch box</w>
Take shi</w>
ignor ance</w>
Sche me</w>
chu bby</w>
en sures</w>
orph an</w>
Hun gary</w>
B GM</w>
Xi ao
be couse</w>
it iner
legen ds</w>
or naments</w>
Yaman ashi</w>
pier ced</w>
syn onyms</w>
courte sy</w>
min erals</w>
fi ghters</w>
ce dar</w>
da ily
targe ted</w>
Capitali ze</w>
haun ted</w>
delici ous
= UTF
macker el</w>
vivi dly</w>
Trans formers</w>
ri verside</w>
acous tic</w>
cy clists</w>
un precedented</w>
\/\/ja. wikipedia.
i f
K I
al e
ic o</w>
sh an</w>
G ab
Y un
r ally</w>
N am</w>
p ts</w>
he w</w>
our ed</w>
ch ic</w>
so \/
an ded</w>
for gi
ep i
G all
. When</w>
loo p</w>
B 1</w>
as sure</w>
ome o</w>
Wh ose</w>
ab u</w>
ari ses</w>
cour ts</w>
fav our</w>
h oll
ref =
7 7</w>
Th ous
r anks</w>
dri p</w>
pic .com\/
- free</w>
S oup</w>
str ap</w>
Na mes</w>
I L</w>
youtu .
K O</w>
Ac cor
is tics</w>
lec ting</w>
to s</w>
Ti ll</w>
for t</w>
De li
al ong
pu mp</w>
du mp</w>
ER S</w>
I F</w>
T AN
6 pm</w>
si t-
end ers</w>
re gain</w>
P lu
off ense</w>
inter active</w>
Ni ss
Tr ust</w>
pres so</w>
short cut</w>
M ouse</w>
di gging</w>
A wesome</w>
whi pped</w>
tire some</w>
B oring</w>
sa iling</w>
compar ative</w>
9 50
c attle</w>
tex ted</w>
law yers</w>
Philipp ine</w>
suffici ently</w>
Ya o</w>
simil arity</w>
Ap p</w>
But ter
Engine er</w>
Lat ent
ja mas</w>
there by</w>
Sak ur
char coal</w>
insul t</w>
draw backs</w>
abo ard</w>
Mad am</w>
disc ounts</w>
negoti ation</w>
bo hydr
Cat ch</w>
open ly</w>
to asted</w>
Ce bu</w>
Class ic</w>
U sers</w>
Vo ice</w>
batt le
\/\/twi t
199 0s</w>
Champi onship</w>
mail box</w>
reck on</w>
cri spy</w>
cock tails</w>
yester day
sp acious</w>
Me tropolitan</w>
All en</w>
careless ly</w>
Well ..</w>
veter in
＾ ＾</w>
/ pdf
cher ries</w>
un certainty</w>
ear liest</w>
Isl ands</w>
Defin itely</w>
pro spects</w>
Ordin ary</w>
sevent een</w>
helicop ter</w>
machin ery</w>
Expl or
bul letin</w>
archi ves\/
Pi zza</w>
Ukrain ian</w>
Watan abe</w>
ket chup</w>
incen tive</w>
Latent Sty
n l
O Y
in n
V in
T ic
si h</w>
G ro
F ar</w>
el a</w>
or \/
ent \/
er ..</w>
pe l
ol is</w>
g ence</w>
da -
Wh it
ec o</w>
su b</w>
re com
ur ance</w>
B us</w>
under going</w>
g love</w>
5 3</w>
sh ank</w>
proble m
imp ose</w>
de x</w>
a is
qu est</w>
tri als</w>
gn ation</w>
G E</w>
1 10</w>
sol es</w>
G ates</w>
Ex pen
g low</w>
y ~</w>
R yo
supp or
high ways</w>
lo dge</w>
con front</w>
v= p
off spring</w>
lic it</w>
custom ary</w>
respon ding</w>
Con an</w>
ju st
view /
Po st
fi ber</w>
assi sted</w>
s tically</w>
ye arly</w>
F ut
fla me</w>
in ches</w>
end ings</w>
shi ki</w>
con version</w>
30 -
ap ric
Ro bo
1 :30</w>
con serve</w>
199 1</w>
thre aten</w>
pi one
exha us
dial y</w>
bla ming</w>
th ursday</w>
TO YO
emer ged</w>
Ev ent</w>
shar ks</w>
Je wish</w>
reve als</w>
posse ssions</w>
ski pping</w>
gre asy</w>
spec tive</w>
cor respond</w>
in- laws</w>
susp ense</w>
\/ em</w>
Mom oko</w>
Cri tics</w>
pro spect</w>
Bro ther</w>
inte gration</w>
confi dently</w>
. ly\/
To tal</w>
anticip ate</w>
er ased</w>
Pr omo
Techn ical</w>
index .php</w>
spon taneously</w>
music als</w>
Cent ury</w>
Is sues</w>
Ara shi</w>
down loading</w>
++++++++ ++++++++
investig ating</w>
Cir cle</w>
Jo sep
yak itori</w>
deliber ately</w>
dif fr
Rac hel</w>
self- esteem</w>
allevi ate</w>
gra matically</w>
neighbour hood</w>
volun tarily</w>
convey or</w>
inspi res</w>
brand- new</w>
obsc ure</w>
Ser geant</w>
mir acul
agen da</w>
apric ot</w>
Josep h</w>
T W
4 2
. -
ha s
A l</w>
be en
j as
[...]
